[PAD]
[UNK]
[CLS]
[SEP]
[MASK]
!
"
#
$
%
&
'
(
)
*
+
,
-
.
/
0
1
2
3
4
5
6
7
8
9
:
;
<
=
>
?
@
A
B
C
D
E
F
G
H
I
J
K
L
M
N
O
P
Q
R
S
T
U
V
W
X
Y
Z
[
\
]
^
_
`
a
b
c
d
e
f
g
h
i
j
k
l
m
n
o
p
q
r
s
t
u
v
w
x
y
z
{
|
}
~
¡
¤
§
¨
°
²
³
´
·
¿
×
÷
˚
π
ω
ᆞ
‘
’
“
”
‥
…
‰
※
ⁿ
₂
Ⅰ
ⅱ
ⅲ
←
↑
→
↓
↖
↗
↘
∀
∇
∼
≤
≥
⊙
⌒
①
②
⑦
⑹
ⓒ
ⓛ
ⓞ
─
━
┏
┑
■
□
△
▶
▷
▼
▽
◀
◁
◆
◇
○
◎
●
◐
◑
★
☆
☜
☞
☻
♂
♡
♣
♤
♥
♧
♨
♩
♪
♫
♬
、
。
《
》
「
」
『
』
【
】
あ
い
う
え
お
か
が
き
く
け
こ
さ
し
す
せ
そ
た
だ
っ
つ
づ
て
で
と
な
に
ね
の
は
ひ
ほ
ぽ
ま
む
も
ゃ
よ
ら
り
る
れ
ろ
わ
を
ん
イ
ウ
エ
カ
ガ
ク
グ
コ
シ
ス
セ
タ
ダ
チ
ッ
テ
デ
ト
ニ
ノ
バ
パ
ヒ
ビ
ピ
ベ
マ
ミ
ム
メ
ョ
ヨ
リ
ル
ロ
ワ
ン
ㄱ
ㄲ
ㄳ
ㄴ
ㄵ
ㄶ
ㄷ
ㄸ
ㄹ
ㄺ
ㄻ
ㅀ
ㅁ
ㅂ
ㅃ
ㅄ
ㅅ
ㅆ
ㅇ
ㅈ
ㅉ
ㅊ
ㅋ
ㅌ
ㅍ
ㅎ
ㅏ
ㅐ
ㅑ
ㅒ
ㅓ
ㅔ
ㅕ
ㅖ
ㅗ
ㅘ
ㅚ
ㅛ
ㅜ
ㅝ
ㅞ
ㅟ
ㅠ
ㅡ
ㅢ
ㅣ
ㅤ
ㆀ
ㆍ
一
三
上
下
世
丙
中
乃
也
亞
亡
人
低
佑
作
侖
信
候
倭
傑
僞
先
典
凡
凸
出
刀
刻
前
力
助
勇
化
北
千
及
友
反
古
史
名
吐
味
品
善
喜
器
型
塵
外
大
天
失
女
好
娼
婦
子
孝
宋
完
定
害
家
小
尾
山
岡
峰
峽
希
師
常
年
幸
庭
式
張
彩
彼
待
後
復
心
必
忍
忠
念
急
性
悲
情
惡
愛
感
慧
慰
慶
憎
戰
手
故
敵
新
旋
日
映
曰
曲
最
會
月
有
望
期
木
末
本
朴
林
柱
棒
様
檢
歌
武
死
殖
母
氣
水
永
求
江
法
派
流
淇
湖
漁
演
濡
火
無
熱
父
特
猶
王
現
生
用
田
甲
申
男
画
異
畵
白
的
皿
益
目
直
看
眞
眠
祖
神
禪
秀
私
立
笑
糞
紅
紙
終
結
緣
罪
美
義
者
腸
自
臭
舒
船
色
苦
英
萬
落
葉
蒼
藝
蛇
蜀
蟲
街
衛
要
見
觸
言
記
話
論
謝
讐
車
過
道
遠
部
都
里
野
針
鈴
鋒
錢
間
集
離
難
電
霆
非
面
韓
頑
頭
飛
香
驛
高
가
각
갂
간
갅
갇
갈
갉
감
갑
값
갓
갔
강
갖
갗
갘
같
갚
갛
개
객
갠
갤
갬
갭
갮
갯
갰
갱
갵
갸
갹
걀
걈
걍
걑
걔
걘
거
걱
건
걷
걸
검
겁
겂
것
겄
겅
겈
겉
겋
게
겍
겐
겓
겔
겜
겝
겟
겠
겡
겤
겧
겨
격
겪
견
결
겸
겹
겻
겼
경
곀
곁
곃
계
곅
곗
곘
고
곡
곤
곧
골
곪
곰
곱
곳
공
곶
곷
곸
곻
과
곽
관
괄
광
괘
괜
괞
괨
괭
괴
괸
괺
굉
교
굣
구
국
굯
군
굳
굴
굵
굶
굷
굼
굽
굿
궁
궂
궄
궅
궈
권
궐
궛
궜
궤
궨
귀
귄
귈
귐
귓
귘
규
귝
균
귤
귬
귯
귱
그
극
귻
근
귿
글
긁
금
급
긋
긌
긍
긑
긔
긛
긬
기
긱
긴
길
김
깁
깃
깄
깅
깇
깈
깉
깊
까
깍
깎
깐
깔
깜
깝
깞
깟
깠
깡
깤
깥
깨
깩
깬
깰
깸
깹
깻
깼
깽
꺄
꺅
꺆
꺇
꺍
꺙
꺜
꺠
꺤
꺴
꺼
꺽
꺾
껀
껃
껄
껌
껍
껏
껐
껑
껒
께
껜
껬
껭
껰
껴
꼅
꼇
꼈
꼐
꼬
꼭
꼮
꼰
꼳
꼴
꼼
꼽
꼿
꽁
꽂
꽃
꽄
꽈
꽉
꽝
꽤
꽥
꽦
꽹
꾀
꾜
꾱
꾸
꾹
꾼
꾿
꿀
꿂
꿇
꿈
꿉
꿋
꿍
꿎
꿐
꿑
꿓
꿔
꿘
꿧
꿨
꿩
꿬
꿰
뀌
뀐
뀔
뀜
뀝
뀨
뀩
뀰
뀼
끄
끅
끆
끈
끊
끋
끌
끓
끔
끕
끗
끙
끚
끝
끠
끼
끽
끾
낀
낄
낌
낍
낏
낑
낔
나
낙
낚
낛
난
낞
낟
날
낡
남
납
낫
났
낭
낮
낯
낰
낱
낲
낳
내
낸
낼
냄
냅
냇
냈
냉
냊
냌
냐
냑
냔
냘
냠
냣
냥
냨
냬
넀
너
넉
넋
넌
널
넑
넒
넓
넖
넗
넘
넙
넛
넜
넝
넢
넣
네
넥
넨
넫
넬
넴
넵
넷
넸
넹
넼
넿
녀
녁
년
녈
념
녓
녔
녕
녘
녜
노
녹
논
녿
놀
놃
놈
놉
놋
농
놑
높
놓
놔
놕
놘
놜
놧
놨
놬
놰
뇌
뇔
뇨
뇬
뇰
뇽
뇾
누
눅
눈
눊
눌
눔
눕
눙
눠
눴
눼
뉘
뉜
뉠
뉨
뉴
늄
늉
느
늑
는
늗
늘
늙
늠
늡
늣
능
늦
늨
늪
늬
늰
늴
닁
니
닉
닊
닌
닏
닐
님
닙
닛
닝
닟
닠
다
닥
닦
단
닫
달
닭
닮
닯
닳
담
답
닶
닷
당
닺
닻
닼
닽
닾
닿
대
댁
댄
댇
댈
댐
댑
댓
댔
댕
댖
댘
댜
댝
댠
댣
댬
댰
댸
더
덕
던
덛
덜
덟
덤
덥
덧
덨
덩
덫
덮
덯
데
덱
덴
덷
델
뎀
뎁
뎃
뎄
뎅
뎈
뎋
뎌
뎍
뎐
뎜
뎟
뎠
뎡
뎨
도
독
돈
돋
돌
돔
돕
돗
동
돜
돟
돠
돤
돱
돵
돼
됀
됄
됌
됏
됐
됑
되
된
될
됨
됩
됫
됬
됭
됴
됻
두
둑
둔
둗
둘
둠
둡
둣
둥
둦
둬
둿
뒀
뒈
뒌
뒤
뒬
뒷
뒹
뒺
듀
듁
듕
드
득
든
듣
들
듦
듧
듨
듬
듭
듯
등
듲
듴
듵
듷
듸
딍
디
딕
딘
딛
딜
딤
딥
딧
딨
딩
딪
딫
딬
딮
따
딱
딲
딴
딷
딸
땀
땁
땃
땄
땅
땈
땋
때
땍
땐
땓
땔
땜
땝
땟
땠
땡
땨
땸
떄
떈
떌
떔
떘
떙
떠
떡
떤
떨
떫
떰
떱
떳
떴
떵
떻
떼
떽
뗀
뗄
뗑
뗬
뗴
뗵
뗼
또
똑
똔
똗
똘
똠
똥
똭
똴
뙀
뙁
뙇
뚜
뚝
뚠
뚤
뚫
뚬
뚯
뚱
뛰
뛴
뛸
뜀
뜁
뜌
뜍
뜨
뜩
뜬
뜯
뜰
뜷
뜸
뜻
뜽
띀
띁
띄
띈
띌
띔
띠
띡
띤
띨
띰
띱
띵
라
락
란
랃
랄
람
랍
랏
랐
랑
랒
랔
랖
랗
래
랙
랜
랟
랠
램
랩
랫
랬
랭
랰
랴
략
랽
럈
량
럐
럔
럤
러
럭
런
럴
럼
럽
럾
럿
렀
렁
렄
렇
레
렉
렌
렐
렘
렙
렛
렜
렝
렠
려
력
련
렬
렴
렵
렷
렸
령
렿
례
롁
롄
로
록
론
롤
롬
롭
롯
롱
롴
롷
롸
롹
뢀
뢈
뢉
뢍
뢔
뢰
뢱
료
룔
룕
룡
루
룩
룬
룯
룰
룸
룹
룻
룽
뤄
뤌
뤘
뤠
뤡
뤰
뤼
뤽
륄
륒
류
륙
륜
률
륨
륫
륭
륰
르
륵
른
륺
를
름
릅
릇
릉
릋
릌
릎
릏
릐
릣
리
릭
린
릳
릴
림
립
릿
맀
링
맂
맄
맆
마
막
만
맍
많
맏
말
맑
맒
맖
맗
맘
맙
맛
맜
망
맞
맟
맠
맡
맣
매
맥
맨
맬
맴
맵
맷
맸
맹
맺
맻
먀
먄
먈
먕
먠
머
먹
먼
먾
멀
멈
멉
멋
멌
멍
멎
멐
멓
메
멕
멘
멜
멤
멧
멩
멬
며
멱
면
멸
몀
몃
몄
명
몆
몇
모
목
몫
몬
몰
몸
몹
못
몽
몾
뫀
뫁
뫃
뫄
뫘
뫙
뫼
묘
묠
묨
묭
무
묵
묶
문
묻
물
묽
뭄
뭇
뭉
뭍
뭏
뭐
뭔
뭘
뭡
뭣
뭥
뭨
뭬
뮁
뮈
뮌
뮐
뮝
뮤
뮨
뮬
므
믄
믈
믐
믓
믕
믜
미
믹
믺
민
믿
밀
밈
밉
밋
밌
밍
밎
및
밐
밑
밓
바
박
밖
반
받
발
밝
밞
밟
밣
밤
밥
밧
밨
방
밫
밬
밭
배
백
밴
밷
밸
뱀
뱁
뱃
뱅
뱆
뱉
뱌
뱍
뱎
뱐
뱔
버
벅
번
벋
벌
범
법
벗
벙
벚
벝
베
벡
벤
벨
벰
벳
벴
벵
벸
벹
벼
벽
변
별
볌
볍
볐
병
볓
볔
볕
볠
보
복
볶
본
볹
볻
볼
볽
볾
봄
봅
봇
봈
봉
봊
봏
봐
봑
봔
봗
봘
봙
봣
봤
봨
봫
봬
봭
봴
봵
뵈
뵌
뵐
뵙
뵛
뵜
뵤
뵨
뵹
부
북
분
붅
붆
붇
불
붉
붐
붑
붓
붕
붙
붜
붤
붸
붹
뷁
뷃
뷐
뷔
뷰
뷴
뷸
븅
브
븍
븐
블
븜
븟
븡
븨
븬
빂
비
빅
빈
빋
빌
빔
빕
빗
빙
빚
빛
빝
빠
빡
빢
빤
빨
빰
빱
빳
빴
빵
빻
빼
빽
뺀
뺄
뺌
뺍
뺏
뺐
뺑
뺒
뺘
뺠
뺨
뺴
뺵
뻈
뻉
뻐
뻑
뻔
뻗
뻘
뻡
뻣
뻤
뻥
뻬
뻭
뻴
뼈
뼉
뼘
뼛
뼜
뽀
뽁
뽄
뽈
뽐
뽑
뽕
뽜
뽠
뽯
뽱
뾰
뿅
뿌
뿍
뿐
뿔
뿜
뿟
뿡
뿨
뿩
뿰
쀍
쀠
쀨
쀼
쁀
쁘
쁜
쁠
쁨
쁩
삐
삑
삔
삘
삤
삥
사
삭
산
삳
살
삵
삶
삷
삻
삼
삽
삿
샀
상
샅
샆
새
색
샊
샌
샐
샘
샙
샛
샜
생
샠
샡
샣
샤
샥
샨
샬
샴
샵
샷
샹
샼
샾
섀
섁
서
석
섞
선
섣
설
섥
섫
섬
섭
섯
섰
성
섲
섳
섴
섵
섶
섷
세
섹
섺
섻
센
섿
셀
셈
셉
셋
셌
셍
셐
셑
셔
셕
션
셜
셤
셥
셧
셨
셩
셰
셴
셸
솀
소
속
솎
손
솓
솔
솜
솝
솟
송
솢
솤
솥
솧
솨
솰
쇄
쇅
쇠
쇳
쇼
숀
숄
숍
숏
숑
숖
수
숙
순
숟
술
숨
숩
숫
숭
숯
숰
숱
숲
숴
숼
쉅
쉈
쉐
쉑
쉒
쉔
쉘
쉡
쉣
쉥
쉩
쉬
쉭
쉰
쉴
쉼
쉽
쉿
슁
슈
슉
슌
슐
슘
슛
슝
슠
스
슥
슨
슫
슬
슭
슲
슴
습
슷
승
슺
슼
슽
슾
싀
싄
싐
싑
싖
시
식
신
싡
싢
싣
실
싫
심
십
싯
싰
싱
싲
싴
싶
싷
싸
싹
싼
쌀
쌂
쌈
쌉
쌋
쌌
쌍
쌓
쌔
쌕
쌘
쌜
쌤
쌩
쌰
썀
썁
썅
썌
썜
썡
써
썩
썪
썬
썰
썱
썸
썹
썻
썼
썽
쎀
쎄
쎅
쎈
쎌
쎔
쎗
쎘
쎠
쎤
쎴
쎼
쎾
쏔
쏘
쏙
쏜
쏟
쏠
쏨
쏩
쏫
쏭
쏱
쏴
쐈
쐉
쐌
쐐
쐬
쑈
쑝
쑤
쑥
쑨
쑬
쑴
쑹
쒀
쒕
쒜
쒯
쒰
쒸
쓉
쓔
쓕
쓰
쓱
쓴
쓸
쓹
씀
씁
씅
씌
씐
씝
씨
씩
씪
씬
씰
씸
씹
씻
씼
씽
앀
앁
아
악
안
앉
않
앋
알
앍
앎
앓
암
압
앖
앗
았
앙
앚
앜
앞
앟
애
액
앤
앨
앰
앱
앳
앴
앵
앸
야
약
얀
얄
얇
얌
얍
얏
얐
양
얔
얕
얗
얘
얙
얜
어
억
얶
얷
언
얹
얺
얻
얼
얽
엃
엄
업
없
엇
었
엉
엊
엋
엌
엎
엏
에
엑
엓
엔
엘
엠
엡
엢
엣
엤
엥
엨
엪
여
역
엮
연
엲
엳
열
엷
염
엽
엾
엿
였
영
옂
옄
옅
옆
옇
예
옌
옐
옘
옙
옛
옜
오
옥
온
올
옭
옮
옯
옰
옳
옴
옵
옶
옷
옹
옼
옾
옿
와
왁
왃
완
왅
왈
왑
왓
왔
왕
왘
왛
왜
왝
왠
왤
왦
외
왹
왼
욀
욈
욌
요
욕
욘
욜
욤
욥
욧
용
욬
욯
우
욱
욲
운
욷
울
욹
욺
움
웁
웃
웄
웅
웈
워
웍
원
월
웜
웟
웠
웡
웤
웨
웩
웬
웰
웸
웹
웽
윀
위
윅
윈
윌
윔
윕
윖
윗
윘
윙
유
육
윤
율
윰
윱
윳
융
으
윽
은
읃
을
읅
읆
읇
읊
음
읍
읎
읏
읐
응
읔
읖
의
읭
읮
이
익
읶
인
읹
읺
읻
일
읽
읿
잃
임
입
잇
있
잉
잊
잌
잎
잏
자
작
잔
잖
잗
잘
잛
잠
잡
잣
잤
장
잦
잫
재
잭
잰
잴
잼
잽
잿
쟀
쟁
쟄
쟈
쟉
쟌
쟎
쟘
쟙
쟝
쟞
쟤
쟨
쟾
저
적
전
젅
젆
젇
절
젊
젋
점
접
젓
젔
정
젖
젛
제
젝
젠
젤
젧
젬
젭
젯
져
젹
젼
졀
졈
졉
졋
졌
졍
졎
졏
졐
졑
졓
졔
조
족
존
졷
졸
좀
좁
좃
종
좆
좇
좉
좊
좋
좌
좍
좐
좔
좝
좠
좡
좢
죄
죈
죕
죗
죙
죠
죤
죨
죱
죳
죴
죵
죶
죷
죸
죻
주
죽
준
줄
줌
줍
줏
중
줔
줗
줘
줜
줠
줫
줬
줭
줮
줸
쥇
쥐
쥑
쥔
쥘
쥣
쥤
쥬
쥭
쥰
쥴
쥼
즁
즈
즉
즌
즐
즑
즘
즙
즛
증
즞
즤
지
직
짂
진
짅
짇
질
짊
짋
짏
짐
집
짓
징
짖
짘
짙
짚
짛
짜
짝
짞
짠
짢
짤
짦
짧
짫
짬
짭
짯
짰
짱
짲
짴
째
짼
쨈
쨉
쨋
쨌
쨍
쨓
쨔
쨘
쨩
쨰
쨱
쩁
쩃
쩄
쩌
쩍
쩐
쩔
쩖
쩜
쩝
쩡
쩧
쩨
쪄
쪈
쪘
쪙
쪠
쪼
쪽
쪾
쫀
쫄
쫌
쫏
쫑
쫒
쫓
쫗
쫘
쫙
쫭
쬐
쬬
쭁
쭈
쭉
쭊
쭌
쭐
쭘
쭙
쭛
쭝
쭤
쮜
쮯
쮸
쯔
쯗
쯤
쯥
쯧
쯩
쯪
찌
찍
찎
찐
찔
찜
찝
찟
찡
찢
차
착
찬
찮
찯
찰
찱
참
찹
찻
찼
창
찾
찿
챃
채
책
챈
챌
챔
챕
챗
챘
챙
챠
챡
챤
챦
챨
챰
챵
처
척
천
철
첨
첩
첫
첬
청
첮
체
첵
첸
첼
쳅
쳇
쳉
쳐
쳔
쳣
쳤
쳥
쳫
쳬
초
촉
촌
촏
촐
촘
촛
총
촟
촣
촤
촥
촬
촹
쵁
최
쵝
쵴
쵸
쵼
춋
춌
추
축
춘
출
춤
춥
춧
충
춫
춬
춰
춴
춸
췃
췄
췌
췟
취
췬
츄
츈
츔
츙
츠
측
츤
츨
츰
츳
층
츼
츽
칀
치
칙
친
칝
칠
침
칩
칫
칭
칰
카
칵
칸
칻
칼
캄
캅
캇
캉
캌
캍
캐
캔
캘
캠
캡
캢
캣
캤
캥
캬
캭
캴
컁
컄
커
컥
컨
컬
컴
컵
컷
컸
컹
컼
컾
케
켁
켄
켈
켐
켓
켔
켕
켘
켜
켠
켤
켬
켯
켰
코
콕
콘
콜
콤
콥
콧
콩
콬
콮
콯
콰
콱
콴
콸
쾅
쾌
쾡
쾨
쿄
쿈
쿠
쿡
쿤
쿨
쿰
쿳
쿵
쿸
쿼
퀀
퀄
퀘
퀜
퀭
퀴
퀵
퀸
퀼
큐
큔
큘
크
큭
큰
클
큼
큽
킁
킄
킈
킌
키
킥
킨
킬
킴
킵
킷
킹
킼
타
탁
탄
탆
탈
탉
탐
탑
탓
탔
탕
탗
태
택
탠
탤
탬
탭
탯
탰
탱
탸
턀
터
턱
턴
털
텀
텁
텃
텅
텈
텉
테
텍
텐
텔
템
텝
텟
텡
텨
텼
토
톡
톤
톨
톰
톱
통
톼
퇄
퇘
퇴
툇
툥
투
툭
툰
툴
툼
툿
퉁
퉜
퉤
퉷
퉽
튀
튄
튈
튐
튕
튜
튠
튤
튬
튭
트
특
튼
튿
틀
틈
틋
틍
틐
틑
틔
티
틱
틴
틸
팀
팁
팅
파
팍
팎
판
팔
팜
팝
팟
팠
팡
팥
패
팩
팬
팰
팸
팻
팼
팽
팾
퍄
퍠
퍼
퍽
펀
펄
펌
펏
펐
펑
펔
페
펙
펜
펠
펩
펫
펭
펴
편
펼
폄
폅
폇
폈
평
폐
포
폭
폰
폴
폼
폽
폿
퐁
퐈
퐉
퐌
퐛
퐝
퐠
푀
표
푱
푸
푹
푼
풀
품
풉
풋
풍
풓
풔
풕
풰
퓌
퓨
퓬
퓰
퓽
프
픈
플
픔
픕
피
픽
핀
필
핍
핏
핑
핓
핕
하
학
핛
한
핟
할
핡
핣
핥
핦
핧
함
합
핫
핬
항
핮
핯
핰
핱
핳
해
핵
핶
핸
핻
핼
햄
햅
햇
했
행
햌
햏
햐
햔
햣
햤
향
햫
헀
허
헉
헌
헏
헐
헑
험
헙
헛
헝
헠
헣
헤
헥
헨
헬
헴
헵
헷
헸
헹
헿
혀
혁
현
혈
혐
협
혓
혔
형
혖
혜
호
혹
혼
홀
홈
홉
홋
홍
홐
홓
화
확
환
홙
활
홥
홧
홨
황
홪
홫
홬
홯
홱
회
획
횐
횔
횟
횡
횤
효
횬
횽
훃
후
훅
훈
훋
훌
훑
훓
훔
훕
훗
훙
훜
훟
훠
훡
훤
훨
훵
훸
훻
훼
휏
휑
휘
휙
휠
휨
휩
휴
휸
휼
흉
흌
흏
흐
흑
흔
흘
흙
흝
흠
흡
흣
흥
흦
흨
흩
흫
희
흰
흳
히
힉
힌
힐
힘
힙
힛
힝
힞
힣
盧
老
綠
不
禮
龍
流
紐
律
慄
！
＋
，
？
Ｘ
＼
＾
｀
～
￣
##철
##살
##인
##간
##때
##우
##기
##는
##운
##받
##으
##삼
##라
##토
##닉
##이
##든
##본
##성
##은
##나
##아
##서
##만
##영
##화
##같
##음
##류
##가
##사
##하
##데
##점
##내
##리
##고
##지
##남
##를
##것
##다
##장
##역
##할
##을
##전
##야
##각
##없
##년
##들
##한
##테
##국
##실
##천
##i
##c
##k
##수
##로
##등
##외
##미
##잡
##소
##적
##표
##현
##시
##려
##면
##추
##구
##조
##짓
##큼
##해
##브
##에
##누
##도
##울
##질
##근
##준
##거
##봐
##랔
##ㅋ
##뭔
##냐
##션
##밖
##엔
##증
##납
##용
##달
##불
##쌍
##요
##제
##름
##스
##릴
##러
##디
##머
##정
##의
##비
##자
##또
##볼
##래
##놓
##포
##재
##너
##무
##웃
##위
##대
##태
##찬
##양
##며
##배
##열
##늘
##보
##곡
##릭
##터
##루
##함
##민
##엄
##짱
##억
##허
##쟁
##o
##r
##청
##있
##꾸
##낌
##었
##과
##개
##어
##오
##말
##꼭
##될
##랑
##여
##듯
##쉬
##능
##모
##녀
##뇬
##싶
##드
##매
##못
##겠
##타
##령
##님
##동
##작
##품
##연
##분
##치
##냄
##새
##뻔
##퓨
##즈
##얼
##펙
##트
##와
##닌
##했
##먹
##카
##그
##잤
##네
##종
##직
##까
##팍
##난
##군
##출
##활
##극
##물
##주
##밌
##형
##급
##였
##긴
##둦
##투
##더
##문
##련
##상
##원
##침
##0
##키
##튼
##벨
##얀
##켈
##부
##던
##방
##관
##꼴
##견
##험
##르
##생
##송
##게
##줘
##맙
##얘
##잘
##감
##세
##편
##집
##돼
##채
##톤
##ㅠ
##뭐
##랄
##니
##찮
##호
##독
##턴
##처
##럼
##a
##m
##d
##n
##g
##B
##김
##크
##엨
##안
##봅
##판
##되
##습
##ㄴ
##끼
##애
##론
##란
##복
##짜
##P
##R
##응
##번
##통
##메
##u
##e
##끄
##훈
##식
##레
##갈
##푸
##마
##았
##심
##른
##공
##셨
##죠
##혁
##땜
##봣
##밋
##♥
##돌
##봉
##단
##반
##놈
##냔
##됐
##봤
##델
##딨
##맞
##막
##걸
##좀
##취
##멋
##건
##체
##손
##록
##워
##중
##력
##린
##결
##버
##절
##럭
##앙
##악
##완
##런
##금
##코
##놔
##많
##넼
##탄
##올
##층
##람
##망
##신
##덕
##저
##왔
##산
##4
##진
##경
##쓰
##일
##않
##픈
##슈
##피
##윤
##씨
##똥
##릉
##찰
##임
##황
##희
##발
##뵈
##선
##족
##노
##착
##핰
##쏠
##듬
##바
##골
##좋
##깨
##v
##웠
##겹
##최
##입
##학
##흐
##된
##끝
##존
##속
##두
##I
##멜
##량
##계
##유
##겨
##날
##맨
##당
##땟
##잔
##색
##순
##랏
##ㅜ
##병
##맛
##강
##꽁
##싸
##킹
##초
##넨
##흡
##법
##앞
##클
##링
##담
##케
##뻤
##북
##빨
##갱
##꺼
##베
##갉
##권
##꺙
##꾱
##낑
##랽
##룕
##뷁
##랜
##뜩
##롸
##필
##꼬
##쇼
##ㅎ
##차
##슬
##떻
##랙
##2
##텐
##월
##길
##혔
##1
##8
##행
##됬
##잭
##징
##둘
##답
##블
##떤
##잇
##밀
##탈
##즘
##잼
##섭
##왜
##프
##램
##찍
##픔
##알
##럽
##히
##값
##덩
##휴
##벌
##뜻
##쯤
##합
##욕
##락
##접
##ㅉ
##몽
##퐛
##튕
##끌
##파
##왠
##깝
##믹
##빙
##뻐
##s
##됴
##광
##뽕
##ㄹ
##뚱
##격
##쓴
##갑
##뜬
##햇
##져
##림
##슷
##규
##츠
##템
##띄
##낸
##예
##회
##딩
##밤
##옴
##h
##후
##택
##뿐
##뻣
##멍
##언
##께
##흥
##느
##렸
##☆
##플
##백
##펜
##평
##휘
##냥
##9
##죄
##씻
##삶
##샤
##뿔
##볍
##럴
##z
##죽
##염
##틈
##닫
##셔
##펏
##릎
##씩
##명
##티
##딸
##설
##교
##봴
##줄
##읽
##낫
##옹
##b
##t
##획
##충
##갖
##객
##킨
##풀
##F
##효
##뱀
##칭
##캐
##쾌
##넘
##닥
##싱
##별
##닮
##육
##ㅡ
##찡
##엇
##빠
##몰
##혀
##욬
##덤
##높
##졌
##둑
##온
##킴
##엉
##눈
##빛
##액
##땐
##솜
##털
##눕
##힌
##창
##틀
##얄
##띤
##덴
##셜
##념
##섬
##센
##쳤
##툭
##놨
##ㅐ
##촬
##써
##쭈
##측
##숙
##빈
##첨
##켰
##3
##향
##쁘
##큐
##틴
##♡
##짧
##논
##꿈
##꾼
##립
##핳
##글
##탠
##씬
##석
##벗
##척
##홀
##흔
##낭
##뿌
##쳐
##움
##뭘
##O
##륭
##익
##쪽
##싫
##늠
##특
##뎠
##왕
##끊
##곤
##됨
##박
##셉
##닐
##슐
##C
##G
##얔
##힐
##둡
##갔
##협
##쩌
##겁
##밑
##욤
##랍
##땅
##따
##칠
##횟
##곰
##ㅊ
##잉
##l
##켜
##쁜
##5
##6
##7
##꼈
##짐
##술
##켠
##짝
##렬
##폰
##빌
##겟
##괴
##쩜
##렇
##팅
##닝
##깁
##슨
##잖
##씁
##승
##뉴
##숑
##멘
##쓸
##놀
##봄
##몇
##목
##럿
##친
##딧
##륙
##랐
##늬
##퀴
##엠
##빗
##셀
##w
##f
##뚜
##엽
##텔
##곳
##딴
##약
##춘
##닿
##읎
##T
##혜
##팬
##롯
##큰
##혼
##엣
##항
##십
##V
##S
##겐
##팔
##콤
##푼
##책
##엎
##귀
##찌
##빵
##p
##콜
##릿
##쑈
##듀
##ㅈ
##킌
##ㅓ
##ㅗ
##핑
##략
##렁
##째
##댓
##겼
##환
##밸
##났
##콕
##넣
##뷰
##냈
##웨
##깡
##혹
##붕
##킥
##핵
##퍼
##업
##몸
##틱
##깊
##궁
##됩
##훨
##젤
##껏
##쿤
##롭
##롱
##범
##커
##떼
##웅
##슴
##떄
##룸
##쿵
##뎁
##헤
##앗
##율
##랬
##쩡
##낼
##뇌
##슺
##확
##숴
##홍
##뒤
##폭
##M
##껰
##폐
##옷
##셍
##참
##팀
##넷
##딱
##렌
##D
##즌
##듦
##쥐
##홧
##꿀
##짬
##똔
##훅
##ㅂ
##ㅏ
##ㄷ
##낮
##끗
##쫀
##즐
##낄
##훌
##쩍
##껴
##퉁
##삭
##례
##떠
##탱
##툰
##y
##돋
##봊
##솢
##곧
##돈
##ㅇ
##널
##줌
##벽
##♩
##♪
##♬
##☞
##☜
##쿡
##찾
##졸
##콩
##쵸
##꼽
##묵
##눠
##축
##꿔
##엘
##뜨
##옥
##페
##ㅅ
##꽝
##묻
##녜
##캅
##룡
##줬
##ㄱ
##춰
##료
##헌
##먼
##팝
##딘
##퀄
##떨
##잰
##밥
##섯
##및
##붐
##쫌
##찔
##끈
##댄
##귄
##변
##긋
##롹
##젠
##껄
##률
##쌩
##닙
##걍
##첸
##롄
##튜
##튀
##넛
##맡
##촌
##깐
##끔
##뮤
##믿
##빼
##핡
##윗
##늙
##x
##암
##줍
##랭
##콘
##렵
##낀
##셋
##썼
##압
##욱
##륜
##꼇
##쯔
##쿠
##U
##N
##K
##돔
##굴
##넌
##묘
##텀
##펐
##깔
##킬
##패
##듣
##랖
##뎀
##쨔
##넬
##탕
##총
##렀
##덜
##썻
##룩
##ㅔ
##ㄲ
##좁
##봇
##엌
##뚤
##팠
##됫
##엿
##켓
##갓
##넉
##X
##홈
##렛
##렐
##욧
##뀔
##뷔
##굿
##닼
##앜
##밧
##첩
##랫
##텨
##흑
##딜
##썬
##텡
##쫓
##훙
##욥
##댔
##걷
##롤
##껐
##벅
##혐
##득
##숨
##붙
##힘
##팡
##쵝
##낙
##틸
##삽
##쪄
##몬
##썰
##H
##W
##섹
##굼
##쇄
##긍
##췬
##깜
##깎
##A
##쉽
##숭
##멀
##릇
##검
##풍
##옛
##뭉
##괜
##윈
##j
##짠
##벤
##끓
##떡
##륄
##웤
##뎅
##핍
##텝
##팩
##컬
##껀
##넹
##픽
##렉
##둥
##롬
##땄
##욘
##넴
##톱
##랗
##쟎
##둬
##펴
##됀
##짢
##몃
##ㅣ
##웟
##씀
##잠
##²
##깍
##앤
##캡
##짙
##릅
##탁
##쇠
##꽃
##넵
##눌
##냅
##빡
##J
##핀
##멸
##칸
##껑
##둠
##왈
##뱉
##쟈
##뗄
##E
##똑
##윌
##쩐
##젼
##웬
##쁩
##맹
##눔
##듭
##렷
##줫
##므
##젖
##흘
##컨
##얌
##셈
##앉
##돕
##낯
##샘
##랩
##똗
##섰
##꼐
##찎
##쭉
##썩
##옵
##쿨
##칙
##귯
##멕
##몫
##땠
##찐
##폈
##됏
##퀸
##쪙
##짤
##죤
##팽
##읍
##궐
##룹
##걱
##녕
##맟
##쭤
##겻
##풋
##낳
##찿
##읹
##낚
##펑
##쏘
##섀
##쿼
##쎄
##솟
##헬
##굽
##탑
##늦
##긔
##옳
##옆
##짖
##켄
##왓
##뀐
##춤
##섞
##탐
##헐
##맺
##몹
##왘
##뎌
##떈
##츄
##쟝
##맥
##─
##뤄
##꼰
##쨌
##얹
##뛰
##맑
##렘
##좌
##컥
##궈
##핫
##뢰
##츙
##쉐
##핸
##뎃
##챙
##떳
##숰
##냌
##밍
##렴
##닭
##뭇
##ㅛ
##밴
##쌤
##쪼
##븟
##굉
##맘
##쩔
##햐
##븐
##닷
##홥
##슥
##맠
##칼
##믄
##룬
##밭
##헨
##똘
##폴
##씰
##밨
##뚬
##왼
##먄
##퀀
##쏴
##싼
##헝
##칩
##붓
##뽀
##쌈
##쯧
##찢
##잊
##껍
##갇
##샷
##섵
##펼
##뽑
##맣
##샥
##깃
##댐
##쌔
##균
##빽
##혈
##댜
##숏
##농
##굳
##썹
##쁨
##몄
##녹
##뫘
##룰
##た
##い
##で
##す
##ン
##グ
##ワ
##ヨ
##ル
##シ
##ム
##ヒ
##し
##ま
##뱅
##벙
##띨
##밝
##ㅆ
##솤
##찹
##샜
##웡
##둔
##멩
##눅
##콧
##얷
##헵
##챔
##졋
##괸
##셰
##엑
##뭍
##컷
##맍
##샬
##Z
##꼳
##캠
##깬
##쫘
##갛
##뀌
##젊
##쑴
##L
##톡
##ㅁ
##옼
##샀
##쎗
##썸
##닠
##멉
##흠
##잃
##웁
##쨩
##엾
##펭
##탓
##갰
##섥
##빅
##찜
##깄
##삐
##맷
##빔
##씹
##옰
##땡
##★
##쳣
##녔
##륵
##뤘
##췄
##잏
##뎈
##죵
##첼
##벝
##촤
##찻
##펀
##앨
##セ
##ッ
##ク
##ス
##펠
##땃
##벡
##삷
##뚫
##쫄
##윙
##헀
##썅
##벵
##갤
##폼
##뻥
##뇰
##퉤
##뉘
##샌
##뺌
##츤
##뺏
##잎
##셧
##뜸
##괘
##ㆍ
##귈
##츈
##웽
##왁
##듲
##볕
##꿉
##싯
##뚝
##먀
##킵
##컵
##땀
##꺅
##싹
##밈
##펄
##땨
##딪
##밉
##녁
##솔
##갘
##밷
##떴
##엮
##댕
##셩
##깠
##렜
##쾅
##큘
##줸
##좡
##딍
##밓
##ㅑ
##촉
##띵
##벼
##돠
##욯
##웰
##큭
##횤
##횽
##햏
##텍
##ㅌ
##썽
##룻
##묶
##렙
##깼
##엡
##뿍
##옜
##푹
##욜
##홬
##쥬
##빤
##놧
##찝
##캣
##뿜
##퉷
##갯
##Y
##믈
##콸
##톨
##띠
##댇
##깅
##욌
##흰
##밟
##₂
##훼
##겪
##Q
##맂
##륒
##뤼
##꿨
##넸
##촐
##윽
##캔
##홋
##짰
##냨
##찼
##잌
##탭
##헉
##뉨
##샊
##탬
##쨋
##꿋
##곀
##헴
##컴
##륨
##겅
##멱
##듴
##팥
##좆
##깸
##뭄
##뺀
##쥴
##꽥
##쁠
##욀
##툴
##흉
##넥
##뤠
##닳
##왤
##곱
##됌
##릋
##랴
##힙
##쉴
##━
##ㆀ
##겉
##핥
##픕
##홉
##빕
##뽁
##젬
##カ
##ピ
##퐠
##쨓
##쎔
##캄
##떵
##ㅄ
##꿇
##챠
##겄
##멈
##ω
##딥
##퇄
##씽
##퐉
##닦
##쏟
##닛
##웩
##컁
##퀘
##졈
##휙
##퍽
##ㄵ
##딕
##꾹
##꽂
##첫
##얻
##랠
##ㅍ
##젓
##윅
##얐
##잣
##낰
##칫
##쭐
##겤
##칰
##볶
##쥘
##젝
##댈
##쐉
##빴
##훗
##캬
##믐
##냇
##쌀
##챤
##앓
##텅
##껜
##삘
##꺽
##퇴
##팸
##곁
##뽄
##짴
##뮬
##겔
##멓
##찟
##쁀
##샐
##뛴
##쒯
##냑
##쭊
##×
##휼
##꼼
##샵
##슉
##퐁
##ㅕ
##핟
##힛
##쪘
##숲
##긁
##횡
##셸
##샛
##샹
##숀
##퇘
##핮
##맴
##깽
##핏
##숫
##틋
##딛
##ㅃ
##뇽
##슁
##늑
##뻑
##덥
##챘
##햅
##컸
##헠
##뿡
##팟
##흙
##뒷
##숍
##옄
##녓
##땋
##뀨
##퀼
##넒
##끕
##꿰
##겸
##짘
##낔
##칀
##쓹
##엋
##뮈
##곸
##꽉
##늪
##콥
##끆
##ㅘ
##졍
##돟
##컹
##슌
##쌋
##뒀
##콬
##쥇
##컾
##♨
##놃
##쥑
##씌
##뀜
##떔
##옇
##엲
##썪
##멤
##○
##탤
##죱
##웹
##랰
##춥
##앎
##틍
##딫
##졓
##앚
##덧
##곻
##촘
##깰
##헣
##엏
##즉
##껌
##럐
##듷
##앵
##롴
##뺴
##쉿
##쥼
##쨰
##뒈
##닟
##탗
##닺
##햌
##숩
##툼
##뜯
##뽜
##꿍
##귱
##뫄
##쩨
##삳
##슼
##싡
##땝
##캉
##놬
##쩧
##뇨
##덟
##팁
##잫
##젹
##웍
##읐
##쳥
##끽
##갠
##섴
##귿
##q
##뷴
##쯩
##굷
##떙
##썌
##꺄
##뭡
##칻
##헹
##끙
##뷸
##츳
##뀰
##댬
##쏜
##괄
##쥔
##짯
##훡
##엪
##휏
##뺐
##ㅢ
##첵
##쏭
##●
##맵
##쑝
##덮
##렝
##톰
##냉
##됄
##긬
##ㅝ
##쫒
##믺
##괭
##흫
##쭝
##팰
##힝
##턱
##훓
##룽
##뻘
##→
##졉
##쌓
##읏
##↓
##∀
##≤
##닁
##빳
##셕
##슘
##폿
##뿅
##헑
##엢
##눊
##쟞
##킷
##솝
##뻬
##쑤
##봗
##쑥
##낍
##켯
##숱
##쉡
##댁
##돵
##샅
##쿄
##벳
##삑
##넓
##쌌
##뺑
##엥
##쀼
##뢈
##췌
##킄
##웄
##훔
##몀
##깩
##큽
##탉
##▽
##￣
##볻
##넜
##ダ
##뺨
##쩝
##틑
##맄
##뿨
##킈
##놉
##귤
##융
##얕
##ㄸ
##섿
##쳇
##뵜
##꿧
##틐
##쓱
##돜
##빻
##뵙
##꺠
##귬
##욷
##꽤
##쟘
##녘
##팜
##븅
##넝
##갅
##녿
##햄
##쟾
##땔
##뉜
##뜀
##뼛
##윔
##쾨
##둣
##쭘
##붆
##귘
##잦
##븬
##벋
##릣
##얗
##겡
##칵
##쇅
##삿
##ㅖ
##쒸
##봏
##챦
##겜
##뇔
##혓
##쎼
##↑
##だ
##よ
##늗
##뱃
##◀
##꿐
##셴
##꺾
##돗
##쏙
##쮸
##싄
##먕
##죕
##듧
##앍
##뎜
##탰
##쏨
##닏
##멧
##딬
##눴
##셐
##뜰
##싷
##윰
##곘
##셌
##낱
##댣
##븡
##탔
##귻
##긛
##늉
##뫙
##씸
##쌕
##멌
##は
##옌
##짇
##럤
##붅
##▼
##쟤
##옮
##흨
##멎
##읻
##헿
##궂
##쫙
##ㄳ
##됑
##긱
##☻
##짚
##윘
##닻
##뗀
##켐
##덱
##쳔
##즁
##헷
##푀
##깤
##헛
##뺄
##샨
##ᆞ
##휸
##윳
##쨘
##졐
##옶
##툥
##귓
##쬬
##짭
##킼
##릏
##챗
##걔
##젯
##냣
##뱌
##븜
##↗
##↘
##쉘
##돤
##넿
##も
##か
##っ
##쭙
##딤
##볾
##뭣
##줠
##랒
##뻗
##셥
##챌
##쑨
##싖
##궤
##뗴
##삤
##늄
##뮌
##갚
##썜
##샴
##뭥
##샣
##뼈
##읭
##읔
##띈
##뭏
##읊
##귐
##뜽
##こ
##と
##が
##き
##な
##냠
##を
##렄
##얏
##쩖
##갸
##눼
##횬
##쨉
##퉜
##맆
##깈
##켘
##맬
##퓽
##뫃
##퍄
##맗
##앳
##럔
##홓
##붉
##뱔
##곷
##졔
##앟
##쉅
##앰
##뵐
##댰
##떰
##쎠
##믓
##꽦
##둗
##ベ
##츨
##ㄻ
##놕
##탯
##캇
##삥
##굶
##츰
##춸
##읃
##깻
##놑
##춧
##튭
##싑
##졀
##릐
##횐
##꽄
##헸
##ゃ
##섳
##겧
##붇
##곽
##챈
##갬
##륫
##쉣
##햤
##긌
##젇
##댘
##읶
##얶
##몾
##캌
##갗
##쥰
##봈
##얙
##짼
##쐈
##텈
##핻
##덛
##줜
##뽈
##첬
##쓔
##꼅
##겝
##옙
##깥
##렠
##◎
##▷
##◁
##△
##■
##□
##딷
##샡
##넙
##냘
##졷
##쨍
##븨
##벹
##슛
##쌘
##츔
##봫
##둿
##믜
##넫
##땈
##슾
##뉠
##뎐
##뒬
##튠
##듸
##꽈
##얍
##쌉
##샠
##핼
##윱
##チ
##ョ
##パ
##リ
##の
##エ
##ロ
##됻
##텉
##갭
##흏
##냊
##쉰
##줏
##윖
##う
##ら
##꾀
##헥
##됭
##핬
##붑
##쉒
##싢
##겈
##쉭
##텁
##끠
##옂
##젆
##흣
##´
##쒀
##끅
##쥭
##씅
##ㄺ
##륰
##윀
##훤
##콰
##쭁
##폄
##팎
##겋
##굵
##씪
##뜷
##꿘
##펫
##걀
##뵤
##븍
##뺍
##먠
##흩
##뒹
##쎌
##셤
##냬
##앋
##쩄
##햫
##옿
##ㄶ
##쓉
##쳫
##켔
##ㅤ
##꼿
##넖
##싰
##닽
##쪈
##ⁿ
##ト
##뜍
##좔
##볐
##짏
##켬
##짂
##덯
##밎
##쉼
##훟
##튐
##뇾
##쑬
##뽐
##궜
##똠
##쎈
##쟌
##쉈
##핱
##껃
##줔
##삔
##꿎
##껬
##캤
##톼
##앴
##햣
##옐
##홨
##뿟
##럈
##쬐
##깇
##쥣
##땸
##앸
##쀨
##혖
##밫
##캘
##섁
##뤽
##낲
##땍
##텼
##굯
##꾜
##ㅞ
##ㅚ
##롷
##팻
##뵛
##∼
##쫑
##킁
##젔
##툿
##쒜
##륺
##뎍
##に
##낛
##얇
##곪
##캴
##ね
##뵹
##뢍
##귝
##빰
##빱
##て
##젧
##쎤
##겓
##ん
##줭
##맖
##읮
##깞
##짦
##봬
##밐
##꾿
##쪠
##곅
##죸
##맒
##앱
##헏
##짛
##왝
##끋
##깉
##숟
##츼
##쎘
##슝
##홪
##갹
##쿰
##떽
##¨
##숯
##ノ
##ビ
##껭
##뗼
##랃
##る
##り
##빋
##욈
##덷
##슫
##뚠
##꺇
##왑
##굣
##퐈
##힣
##휠
##짞
##싴
##튄
##렿
##묨
##룯
##젛
##け
##＾
##핯
##뤌
##싀
##홯
##끾
##켕
##쫭
##옾
##뼉
##넢
##챃
##켁
##겍
##늣
##빝
##샼
##핧
##녈
##샙
##좠
##컄
##쒰
##흳
##늴
##잛
##먈
##뎡
##뎋
##힞
##롁
##봔
##쏫
##띰
##쨈
##낞
##닾
##늡
##팾
##볓
##뗑
##꼮
##깟
##봑
##튈
##숖
##썁
##뢀
##갵
##솧
##봘
##췃
##줮
##핶
##ㅀ
##죻
##뼘
##쭛
##콮
##뽯
##え
##섲
##ⅱ
##ⅲ
##젋
##쏩
##쯗
##뫼
##좃
##쏔
##↖
##볔
##∇
##｀
##◆
##괞
##멬
##～
##윕
##멐
##샾
##뼜
##ⓞ
##ⓛ
##띀
##ㅒ
##슭
##묭
##ミ
##ㅟ
##쎀
##홙
##◐
##◑
##イ
##テ
##줗
##붸
##쥤
##뗵
##큔
##펌
##릳
##넀
##잴
##엊
##쟄
##댖
##늰
##섷
##낏
##짊
##뤡
##덨
##솨
##←
##뛸
##뚯
##섺
##넗
##짲
##섶
##맸
##뮨
##꿬
##웜
##탸
##엃
##뎨
##쟀
##봙
##쐌
##닊
##컼
##봨
##⌒
##뭨
##좝
##풕
##뀩
##쳬
##껒
##뀝
##젅
##뎄
##춌
##좐
##쮜
##홱
##♂
##넋
##빢
##쨱
##땁
##솀
##퍠
##쉥
##왛
##죨
##죈
##퓰
##흌
##챡
##쐬
##듵
##즛
##춬
##맀
##÷
##앖
##죙
##싲
##맜
##눙
##퉽
##뤰
##わ
##뫀
##즙
##れ
##つ
##룔
##떘
##졎
##걑
##솓
##튿
##읅
##홐
##샆
##뿰
##놘
##춋
##훃
##댸
##ひ
##ぽ
##ろ
##탆
##욺
##좉
##앀
##랟
##⊙
##좍
##쿈
##뱍
##곃
##쩃
##뢔
##쌰
##괨
##핛
##폇
##턀
##쾡
##벸
##튬
##핦
##밬
##궄
##찯
영화
##ㅋㅋ
##영화
##니다
##는데
너무
재미
##으로
##지만
정말
##하고
##네요
재밌
##에서
진짜
연기
##하는
##어요
최고
평점
이런
##습니다
##토리
##이다
##하다
##라마
생각
스토리
##들이
##ㅋㅋㅋㅋ
감동
보고
##까지
##하게
지루
##이라
##었다
##보다
드라마
그냥
배우
내용
10
아니
재미있
사람
감독
##레기
##면서
만들
재미없
##해서
##적인
사랑
##렇게
##다는
쓰레기
##리고
보는
영화를
ㅋㅋ
다시
시간
좋아
좋은
##지막
##보고
이거
##으면
이건
영화는
마지막
영화가
##라고
내가
작품
##들의
봤는데
##ㅠㅠ
완전
기대
최고의
액션
##지는
없는
##인공
##하지
##다가
##입니다
좋았
있는
하나
ㅋㅋㅋ
##다고
지금
처음
##야기
한국
##어서
이게
##없는
없다
##세요
하는
나오
##같은
##적이
최악
이렇게
1점
##인데
##들은
10점
별로
연출
##에게
모르
이해
아깝
##부터
##적으로
##대로
그래
역시
우리
##겠다
##이나
그리고
명작
##있는
느낌
평점이
이야기
##한다
##했다
재밌게
기억
아이
이영화
괜찮
많이
##되는
여자
##합니다
##정도
##라는
장면
##지도
##주는
아름
그런
##문에
만든
ㅠㅠ
주인공
##연기
아까
##리는
공포
ㅎㅎ
마음
보여
일본
아무
아닌
##았다
같은
무슨
유치
##것도
볼만
##만에
##배우
##사람
현실
결말
##을까
##가는
없고
##아서
이상
##하나
##없이
다른
몰입
소재
##었는데
남자
반전
##하기
보면
##인가
아깝다
##ㅋㅋㅋㅋㅋㅋㅋㅋ
가장
보기
짜증
ㅡㅡ
##하면
##드는
##였다
가슴
OO
눈물
##드라마
20
매력
스릴
말이
##니까
##없다
애니
##구나
원작
##나는
인생
영화다
인간
대한
##미디
##이고
##인지
##스럽
음악
영상
##는다
##재미
정도
##는지
솔직
##릭터
있다
극장
##너무
##시간
##봐도
만들어
전개
하지만
많은
##었던
##더라
아직
##에는
모든
##아요
##리즈
##려고
##보는
##지마
##하지만
한번
이제
##지고
##지않
##스러
끝까지
##나서
아름다
필요
억지
수준
##처럼
##재밌
##다니
하고
솔직히
##었음
##ㅋㅋㅋ
뭔가
실망
##들을
추천
##0년
재밋
봐도
##나오
모두
전혀
엄청
##중에
아주
여운
연기력
##메이
캐릭터
##스터
그래도
코미디
##떻게
긴장
배우들
좋다
##나라
대박
공감
##기도
이걸
##했던
가족
##이는
계속
봤다
어떻게
##진짜
대단
##주고
개봉
같다
##을때
근데
최악의
##장면
##ㅎㅎ
##는거
##이지
##에도
영화의
대사
##리가
##건지
##때문에
나온
##스트
##이랑
##수록
영화에
재미있게
잔잔
##만들
재밌다
표현
모습
제목
내내
흥미
##했는데
진심
##이가
내용이
##라도
아니라
##기는
##없고
그렇
않고
##수가
보다
어디
##어야
요즘
잼있
##었어요
##던데
##하네요
##이라는
조금
기분
##주인공
##타임
##생각
긴장감
아쉽
연기가
나오는
개인
연기도
##하네
##점이
아니다
##내내
##봤는데
재미없다
스릴러
##라리
떨어
##영화는
느껴
내용도
##어도
않은
시리즈
재미도
막장
##한테
오랜
아쉬
##기에
특히
##전에
##리오
아름다운
중간
나는
나름
##성이
##해요
만드는
제작
##다면
그러
##00
자체
보다가
제대로
##하면서
알바
##리스
제일
감독이
##보면
봐야
부족
노래
차라리
미국
##들도
##만큼
##으나
##같다
##이라고
정신
1편
##인듯
나왔
웃기
스토리가
##아니
##된다
아까운
어설
##영화가
않는
이유
##대체
작가
##만한
아니고
시간이
##기가
##치는
##이란
##난다
##ㅜㅜ
왜이
시작
훌륭
##0년대
보고싶
따뜻
절대
##이상
스토리도
ㅋㅋㅋㅋ
때문에
영화라고
##감독
너무나
출연
로맨
아직도
뻔한
세상
나도
의미
##거리
##할수
어린
살아
감정
영화로
나와
##ㅡㅡ
남는
##해도
##에요
##있다
그저
##나고
도대체
무엇
여운이
보게
싶은
보면서
##진다
##이네
느끼
##더니
##마다
##나리오
##았는데
무서
모르겠
신선
감독의
감동적이
어이
##기를
수작
친구
##군요
무섭
장난
##하는데
##밖에
##스팅
재밌어요
강추
##나요
괜찮은
우리나라
영화입니다
시청
얼마
##로운
##스러운
싶다
주는
행복
##소리
영화였
안되
##었습니다
##으로도
마지막에
언제
관객
되는
사실
좋고
만화
멋진
오랜만에
답답
초반
##고싶
##최고
OOO
시나리오
점수
배우들의
부분
웃음
자신
전쟁
##이야
킬링
좋아하는
##해야
이해가
##영화를
##내용
결국
허접
슬프
오늘
##메이션
##없음
1점도
##준다
##지가
어색
좋았다
보는내내
소름
재미가
없음
##나게
최고다
봤던
추억
인상
지루한
어떤
##이네요
봤습니다
안타
배경
개인적으로
엔딩
영화관
지루하고
분위
완벽
시대
ㅜㅜ
##인이
생각이
##것이
다큐
##성도
이딴
힘들
지루함
아무리
##한데
##oo
어릴
##치고
귀여
제발
##디오
##이지만
당시
역사
##부분
스타
##한거
##동안
졸작
##구만
문제
##스토리
아름답
진부
##아깝
없이
유쾌
함께
들어
킬링타임
##점은
진정
##들에게
예술
##럽게
못한
코믹
##리지
포스터
그렇게
영화도
##을듯
주연
개연
##아까
공포영화
만들었
연기는
##점대
후회
있었
재밌는
애니메이션
찾아
오래
##♥♥
지루하다
돌아
캐스팅
얼마나
더빙
##건가
##나마
##보니
설정
##는게
##보단
보세요
##라이
몰입도
##시길
기억에
##사랑
여러
##구요
옛날
엄마
충격
영화라
사람이
보지마
##주의
##좋아
극장에서
주제
##정말
보지
충분
한국영화
##레이
##OO
좋아요
##있고
어느
지나
##들과
안되는
여기
##하며
궁금
중국
같이
##마디
그래서
말도
##한영화
미친
집중
##당히
하나도
##가지
매우
##길래
않았
##만든
##감동
잔인
후반
##했음
2편
##려는
것이
모르겠다
##이버
##텐데
있고
##인줄
여주인공
##작품
##적이고
불쌍
순수
재밌음
빠져
상상
##같이
##ㅠㅠㅠㅠ
ㅋㅋㅋㅋㅋ
##하시
##렸다
대체
뛰어
##놓고
##웠다
느낌이
ㅉㅉ
##버린
한다
이름
따라
봤어요
알고
##르는
마음이
약간
영화중
감동도
엉성
##것같
눈물이
하지
##st
그나마
나올
비슷
##자기
영상미
##야지
내용은
실화
걸작
이정도
##거지
그만
이쁘
감사
##0분
##력이
19
##수있
##성을
영화네요
얼굴
##점을
##했지만
위해
##함을
##ㄷㄷ
사람들
누가
갈수록
않는다
프로
##자체
가슴이
##기만
위한
훨씬
로맨스
전체
##해지는
##봤다
##워서
##쓰레기
CG
없었다
한마디
다음
단순
재미없음
네이버
##이야기
##듯한
비교
##가서
##이었다
굉장
##것을
##이라도
##리를
연기를
B급
오글
##으니
장르
초딩
##라서
##자가
##개도
노잼
##노잼
비디오
발연기
존나
##시절
티비
##함이
##10
##겠지만
어설픈
감동이
다들
어렸
기억이
시즌
200
알았
이미
인물
있을
화려
##느낌
상황
##말이
것을
보여주는
밖에
이것
##보게
##시키
##타지
없어
##지지
##대한
간만에
성룡
사람들이
결말이
바로
재밌고
##겠지
것도
느낄
##등학
영화관에서
##거나
##린다
##ood
당신
알게
스토리는
##스럽다
##재밋
귀엽
애들
킬링타임용
두번
여배우
##려서
생각보다
대해
쓰레기영화
잔잔한
3류
등장
사회
##말고
##연히
##이라면
##머니
잘봤
##인의
##라면
##나온
##보기
교훈
##버지
영화였다
##론가
마이
##전개
##수준
독특
##적이다
감동적인
다운
별점
않다
이후
##으면서
좋겠
##필요
그리
##짜리
같아요
평가
##거같
##었고
##주세요
삼류
상당히
2점
보니
잘못
진정한
맘에
아님
##거야
##잖아
배우들이
보았
##한번
##보고싶
전부
뭐야
##건데
아쉽다
각본
했는데
중간에
거의
##좋은
주고
해서
##인생
높은
##스가
##er
생각을
뭐지
어른
##해라
##어가
##감이
존재
##정이
제가
혼자
##이팅
##되고
영화임
재미는
세계
##정도로
실제
##평점
자기
저런
##분들
##아깝다
좋은데
그러나
ㅋㅋㅋㅋㅋㅋㅋㅋㅋ
그대로
소설
몇번
이영화를
허무
##할때
감동을
##재미있
기다
멜로
이번
하다
##하하
##년이
##수를
##졌다
굉장히
##여서
빨리
##아닌
나의
다르
어울
있을까
정도로
구성
##워요
슬픈
##지루
마음에
자연
나이
재미있어요
감독님
개그
예상
평점을
좀비
##간다
##하자
##영화의
##나오는
어쩌
같은데
봐서
에로
있지만
볼만한
##어나
재미있는
재미있다
방송
##본다
##스타
##보다는
영화인데
##모르
나와서
질질
##년도
재밌네요
##낭비
시청률
봤지만
##에서도
여주
##영화다
201
더욱
##을텐데
##들어
평론가
프랑
그녀
낮은
준다
##아야
##었지만
볼수
##을수
뭐냐
##라니
갑자기
멋지
##지를
##액션
생각하게
머리
멋있
##하냐
극장판
100
뭐가
가치
케이
원작을
TV
상영
저는
항상
##에선
이런영화
##였음
재미없는
##다른
그때
판타지
예고
예쁘
어디서
끝나
확실
흥행
##다는게
처음부터
믿고
불편
새로운
평범
##던가
크리스
##어지는
장면이
화면
##시대
##에서는
훌륭한
일단
있어서
중요
##예요
라는
##시다
##와서
##저히
역대
##일이
누구
성우
##고는
즐거
해도
안타깝
너무너무
있어
##아이
충분히
한마디로
프랑스
꿀잼
탄탄
의도
##인다
##이라니
봐라
##에겐
##중간
##속에
주인공이
자체가
있었다
##때마다
생각해
못하는
살인
했다
##리의
리얼
전형
##도록
영화보다
만드
점점
##리티
tv
물론
한심
##러운
사람은
대단한
봤음
개연성
##메디
##사가
##했어요
##그런
##하니
분위기
감성
있는데
##들아
가지고
아닐
##았음
##하지않
그런지
##스럽고
##봐서
##스의
돋보
잘만들
##우드
##유의
보여주
없어서
##립니다
good
식상
참고
헐리
이영화는
댓글
더럽게
사이
0점
편집
아닌가
그림
##땜에
감독은
비해
합니다
##년전
##거다
ㅎㅎㅎ
홍콩
##진진
좋은영화
그게
카메
하게
##가고
##자의
##했고
##당한
##조건
##민국
관람
순간
좋네요
한편
##으며
##았던
엉망
원래
이것도
진행
어쩔
다시봐도
어려
줄거리
훈훈
##영화중
##하지도
어릴때
것은
아까움
소리
자극
돈주고
선택
##들만
사람들은
엄청난
몰랐
시절
##이냐
##없어
안타까
미안
범죄
##한게
그닥
##일까
인간의
수가
평점은
끝내
망작
보는데
##아도
나쁜
없네
여전
##만으로도
##었으면
##히려
아빠
##조차
참신
전개가
만족
지금까지
아쉬운
##것같다
##시리즈
##봐야
과거
얘기
액션도
안보
##이면
##저씨
사랑을
먹먹
영웅
##편이
##되어
대한민국
##보면서
흥미진진
괜히
도저히
된다
죽음
진지
학교
##기고
가는
결혼
별루
재밌는데
만점
불륜
오히려
자꾸
감상
멍청
안나
힘든
##이런
##하긴
그래픽
후반부
무조건
좋겠다
##여자
오글거
귀신
재밌었다
배우가
따뜻한
아버지
병맛
##시는
##했습니다
영화인
모르고
3점
##리게
해야
##내는
##파이
평점에
진실
최근
로맨틱
##하다고
완벽한
웃긴
##엔딩
##코미디
대작
우연히
비추
소중
무서운
독립
목소리
이리
저도
##만이
##사회
##없네
##스런
억지로
이러
있음
##오는
그럴
바보
복수
예전에
저질
전설
좋음
희망
##인물
##이트
##하는거
기대하고
바람
분명
##은데
##보세요
가볍
천재
##그램
것이다
화이팅
ㅠㅠㅠ
환상
##겠네
지루해
좋았어요
내인생
알려
전편
##이하
##시고
##어로
SF
ost
가능
돈이
유명
##현실
이런거
있다는
재미없어
아무것도
스타일
전형적인
완성도
##그래
없을
메세
앞으로
입니다
##우는
##메이크
어설프
마무
봤네요
아오
아마
안된다
없네요
잊혀
##하여
##지마라
9점
되어
미화
사라
신기
전문
하면
##움이
유치한
느끼게
설명
##기대
##in
##스를
##친구
연출이
이야기를
그런데
느꼈
##것이다
지금도
나라
나만
요소
##함과
##방송
바라
영원
유머
2시간
동화
전작
현재
흘러
##따위
나쁘
노출
싫어
전기
죽는
##였는데
##랄까
모르는
아이들이
다행
##봐라
##ST
영화에서
연출력
듯한
서로
웃겨
전달
촬영
##안되는
##영화로
청춘
코메디
##내고
##있게
이상한
낫다
리메이크
우울
중반
##것은
##대의
##하는게
만들었다
처음으로
경찰
그의
노력
인정
초등학
##리다
##님의
##그냥
##심을
부모
##지게
어렸을때
다운받
##네여
##같은데
비슷한
12
알았다
##님이
성장
아프
허술
##예산
무엇보다
이런걸
재미있고
##ㅋㅋㅋㅋㅋㅋㅋㅋㅋㅋㅋㅋㅋㅋㅋㅋ
화려한
90년대
##자들
##웠던
##당시
##ㅇㅇ
재미없고
OOO기
놀라
##식이
##심이
보고나서
시간낭비
즐겁
##다시
##년에
##안하고
##막장
부족한
뜬금
##보는데
재밌어
예고편
조연
##나면
##프로
모습이
게임
관계
알았는데
풀어
##싶다
##세가
왜이리
거지
이래
##기엔
##애니
장면은
유치하고
깊은
말고
행동
##아먹
##음악
##어울
최악이다
말하고
특유의
해피
##이거
##평가
좋았습니다
이젠
중에
##짜증
15
왠지
보여준
진부한
##더군요
작품이
마치
##만하면
##자를
##줄알
영화였습니다
ㄷㄷ
나에게
누군
만큼
못보
이연
스토리에
전체적으로
또한
스케
하는데
##리아
##스로
나머
사건
어렵
잘만든
##하겠
##소한
##자는
명작이다
너무나도
이어
피해
##드가
반전이
8점
cg
같네요
애들이
여성
이야기가
여자가
제작비
가득
어찌
좋았고
마음을
4점
가끔
그려
그럼
돌려
밑에
##보이
##치게
##르고
이런게
지난
##인거
##완전
80년대
먼저
뭔지
자유
잘생
##이코
재밌었어요
아니면
그렇고
##그라
##상을
드라마가
대단하다
##하면서도
케이블
그랬
졸라
##였습니다
아니지만
별로다
귀여운
##화가
##he
##별로
소재는
잘봤습니다
정치
##처음
만들지
감사합니다
성공
심리
외국
##인은
##려면
##감을
드라마를
이영화가
모습을
##아니고
않을
짱짱
##인을
##로는
##해주
##걸까
지금봐도
자신의
아닐까
러브
미래
본다
##놓은
##마저
생각한다
다소
황당
##장이
##정을
거기
라고
삶을
아놔
않았다
##이에요
##가요
##대박
##였던
##났다
짜증나
카메라
7점
예전
##하던
##지못
##었네요
##져서
영화중에
매력적인
부분이
인상깊
취향
##많은
##명작
왜이렇게
메시
못하고
안맞
철학
##한다는
##과는
##하는지
감동적
허접한
않음
##만의
##었나
##신이
영화이다
OST
나를
아는
안나오
저예산
##로서
##어진
##많이
좋았음
확실히
눈이
눈을
다만
##수있는
##분에
##좋고
어린이
보지마세요
ㅅㅂ
심심
##한듯
##해주는
사랑이
나온다
같습니다
남아
실패
해주는
##모습
##했으면
남주
미소
알겠
젊은
##든다
##사는
##봤어요
##있는데
##번째
##절한
##일뿐
##면서도
중간중간
슬프다
대충
##리에
##할듯
영화보고
속편
의외
##성애
##실망
##영화에
내용을
역시나
##사람이
느껴지는
낭비
있었던
##내요
##or
##최악
사람을
##지도않
##고싶다
감탄
##심히
다가
알아
화가
##수도
##세계
좋았는데
세상에
손발
와닿
##새끼
스토리와
제작진
감정이
어이없는
##나온다
고민
군대
느낀
종교
하루
한계
##리도
##닝타임
스토리를
감동적이고
프로그램
여전히
어이가
했지만
##물이
##스럽게
어색한
##만으로
##스는
##재밌게
5점
결론
과연
글쎄
나서
리뷰
유일
##아아
##시켜
##움을
액션이
아닌데
아름답고
3편
굿굿
넘어
든다
시도
예쁜
호러
##저럭
영화지만
##보다가
맞는
아저씨
했던
##한건
##었을
그들의
끝나고
드는
오락
이하
##지컬
##어라
처음이다
독특한
같음
해준
##더만
나오고
굳이
##사를
##려다
연기에
드라마는
액션은
주인공의
##사람들
##지않는
내생
보이는
사극
슈퍼
조폭
##하세요
##좋다
##명이
이기
##없어서
##순간
소재를
연애
##해보
##개봉
##되지
##럽다
이유가
유쾌한
겁나
기본
난다
특별
##이게
##거냐
##럭저럭
기대를
가서
일어
##이건
##터리
##니아
##하기만
라이
볼때마다
살짝
슬픔
용서
평생
해주
##식으로
재미를
사랑하는
연예
찍은
##보여
이건뭐
짜증나는
매력이
##더라도
흥미롭
떨어지는
싸이코
에휴
##기억
##영상
##소년
보는게
기분이
그럭저럭
미스
분노
블랙
소녀
스트
##만드는
연기력이
아름답다
순수한
##있네
##였어요
재미있음
레이
마라
적당
후속
##구려
##하다는
하나하나
그런가
아까워
말이필요
평범한
남는다
모자
사기
상처
시원
전에
##가가
##다지
##추천
##웃음
##했을
##겟다
영화냐
10년
사랑과
##하지마
우리가
그걸
깔끔
더이상
스포
시선
역할
##서야
##았습니다
있다면
추천합니다
소름끼
어릴적
통해
##는가
##남자
##있음
사랑에
음악이
진심으로
보러
섹시
자막
##들고
##최고의
고전
무지
산만
저렇게
##으론
##지네요
##래기
작품성
나왔으면
귀엽고
미치
봤다가
##말로
##끼리
##았어요
##학교
소름돋
티비에서
전기세가
가진
아침
채널
혹시
##위해
##와르
##공포
##버렸다
정말로
##ㅠㅠㅠ
안되고
무협
##할까
##디어
##먹고
보기엔
음악도
이정도면
난해
부끄
비극
안하고
포장
힐링
##나올
##시아
##즈니
##레스
##른다
연기와
생각합니다
##이라서
##한다면
몰입이
반전도
재밋게
공감이
고생
뮤지컬
봤었는데
어제
흐름
##인간
##이의
##장에서
##있어요
##트가
##학생
재밌었는데
감동과
볼만함
신선한
막판
##었어
##었네
##듯이
##주얼
추억의
다큐멘
개판
그지
몸매
안됨
영환
올라
##씨가
재밌습니다
지금은
수준이
등장인물
이연걸
거짓
되었다
볼수록
북한
사는
일상
폭력
##ou
##그러
##효과
##으로서
잼있게
보시길
쓸데
없지만
오버
현대
##아라
##화를
##대는
##원이
깊이
놀랍
동물
아련
압권
열심히
표절
##하려는
##구하고
##싶은
##분이
재밌었음
보고싶다
가볍게
오그라
##기의
##대가
##까진
##an
##안되
처음엔
아이들
제목이
슬프고
그렇다
해피엔딩
11
김기
나타
남녀
되게
이때
있습니다
##이크
##나가
##알바
##에서의
필요없는
여기서
어렸을
불쾌
희생
##이터
재미없네
만들어진
##더라구요
이유는
스케일
30
눈빛
동생
말로
보시
심각
악역
전투
좋습니다
태어
##기로
##다운
##무비
##었지
지루해서
그립
설레
수도
지구
크게
포기
형편
##오빠
##드라
##버리고
연기자
시간을
현실을
소재가
상상력
디즈니
재난
정서
조잡
##무서
##했다는
##명의
배우의
몇번을
스티
있나
표정
홍보
##같음
##던지
##줌마
지루하지
연출도
그것
까지
소장
아나
에이
퀄리티
평이
하네요
##소재
##봤음
##티비
##영화도
소재로
언제나
멋지다
30분
그다지
반성
보이
쉽게
##시킨
##버렸
영화보는
아닌듯
결말도
감명
게다가
부터
인터
좋을
하면서
##들에
##돌아
##웠음
##지않은
떠나
말을
싫다
씁쓸
악당
올해
할말
##리기
액션영화
필요한
그렇다고
강렬
같아
나중에
벌써
봤으면
삶의
새벽
선생
이루
통쾌
##마음
##반전
##따라
뛰어난
국민
끝나는
드러
오랫
이쁜
##가능
##해준
##도없고
##느라
생각나는
18
그린
니콜
없나
역겨
##겹다
##속에서
##친다
사람의
좋았던
일본영화
초반에
나가
외계
풋풋
재미있네요
##지않고
##하시는
두고
말할
받아
##한것
##상이
##줘서
##마지막
##꿀잼
재밌네
##까지는
인생을
출연진
건지
비주얼
의문
##라스
##나이
##지의
모든게
봐야할
헐리우드
가까
둘다
스크
의심
일반
펑펑
##류의
##수는
##ㅋㅋㅋㅋㅋ
만들고
결말은
엉성한
마무리
괴물
돈아까
싶어
있지
좀더
##나와
##지말
##안에
##히는
필요없다
능력
드럽게
무시
본방
성인
싸구려
있게
##나왔
##구니
##자단
##겼다
배우들도
누구나
뒤로
시사회
암튼
일부
##이니
##와는
재미있었다
다시한번
마이너
00
광고
방금
섬세
죄다
##이유
##사의
##수없는
##표현
##해진
##트콤
##봣는데
##장면이
보고싶은
독립영화
시각
않게
어휴
할말이
##거운
##있어
##bb
영화라는
##사람은
##보는게
되고
##자고
##독교
##ㅉㅉ
##인가요
인생의
웃기고
몰라도
무언
발전
섹스
시걸
어머니
죽여
쵝오
특수
##이며
##시에
##거리는
##중의
##하다가
##하기도
어려운
깨닫
남을
에피
##이를
##이자
##하려
시간가는
좋아서
이해할
현실적인
이제야
작가가
시대를
단연
살다
신경
왜케
있어요
존경
하이
##아님
##로도
##불가
##ad
##란다
##식을
##두고
10분
무엇을
##자체가
단순한
##10점
견자단
로그
불구하고
우주
##이해
##연기가
나옴
분들
시시
쓰래기
연결
이뻐
##만점
##가락
##하신
##관계
##줘야
##4년
##영화라고
이거보고
몰입감
##시간이
낮아서
떠나서
맨날
베스트
산으로
생애
아픔
##을거
##수의
##됩니다
아직까지
##재밌어요
옛날에
뻔하고
청소년
##이션
##하셨
##도가
##on
##학년
##영화임
느낌을
##배우들
정신병
점수를
고통
느와르
않아
외모
##버리
##져요
사랑스러운
눈물을
##더라면
긴장감도
0점은
나은
다니
단지
딱히
때문
못했다
밋밋
스스로
##하구
##의미
##무섭
##르노
##마스
##랍니다
생각없이
지루할
김기덕
3D
대표
상업
이따위
전반
##성에
##한다고
##봐요
##드의
기대안하고
영화에요
노답
되지
마세요
슬퍼
아들
안봤
한데
##이후
##함에
##했는지
10자
사랑의
볼만하다
ㅇㅇ
공부
다양
더불
러닝타임
명품
발로
생생
세월
인도
잊을
타임
##었는지
##겠음
생각하고
좋아할
아이돌
잔잔하고
전문가
덕분에
많다
있어야
집에서
##하라
##하려고
##처구니
##99
##아니라
이쁘고
탄탄한
고등학
국내
대부분
싶네요
없는데
와우
은근
있네요
주변
처럼
##점도
##내가
##한지
##로우
##았고
##걸로
##좋아요
##하다니
남자가
13
없다는
##인들
##아가
##만화
##겠네요
##물을
##계의
이런영화가
시간아까
에피소
로그인
끝난
바뀌
보니까
볼게
영국
우와
코난
##at
##으로써
쓰레기다
재밋다
헐리웃
기독교
내려
놀랐
무비
문화
복잡
울고
찌질
흔한
##는건
##아니다
##전쟁
##ar
사랑은
하는지
대사가
아쉬움
마이클
안타깝다
1시간
반복
보았다
봣는데
비현실
시트콤
아류
안돼
작은
##만드
##작가
##했네
##온다
##따구
만든다
##재미없
게이
더러운
못할
뭉클
아역
쩐다
찝찝
최강
##거임
##정신
##무슨
##대사
##과의
##되서
최고입니다
의미를
즐겁게
의외로
갈등
검색
과장
남겨
눈에
동안
묘사
민망
발견
빼고
않지만
어처구니
있으면
제이
조용
한참
##우고
##연출
##집니다
##BS
##럽고
##셔서
##씬은
작품을
신선하고
멍청한
007
높다
떠오
설마
신파
연속
울었다
##가지고
##지어
##에만
##거면
##봤던
빠져들
끝날
말하는
무척
믿을
본영화
지켜
편견
허세
히어로
##호가
##봤습니다
##석이
##떨어
재미없어요
기대했는데
##리스마
더불어
경험
관심
극치
새롭
왠만하면
해리
##는영화
##으니까
영화인듯
가져
같아서
거슬
기가
본다면
속에
이정
조선
죽은
##나옴
##영이
##스릴
##양이
##어주
##트맨
##았지만
지루하게
7점대
겨울
안보고
우정
위대한
직접
##려요
##도안
##작이
##결말
##영화라
생각나
작품이다
아깝지
남자의
가슴아
아쉽네요
8점대
미드
어우
짝퉁
##인트
##거같다
##봅니다
##쳐서
이해하기
몰입해서
##스러움
연기력도
표현한
영화였어요
초등학생
the
고마
그것도
다룬
볼거리
불러
아줌마
앞으로도
학생
##성은
##가를
##지금
##씨의
##bs
영화들
장면에서
느끼는
무섭다
이후로
##ing
끌어
로봇
바꿔
자살
필름
##우기
##이로
##나다
##ie
##에대한
쓰레기같은
아이가
음악과
##재밌음
가면
높아
미모
박진
여행
조합
주성
투자
##하진
##리언
##시작
##그리고
##관이
사랑이야기
완전히
모르겠고
결과
꿈을
레전
보긴
보길
빼고는
오바
재미있었어요
우리는
원작의
따뜻해지는
학교에서
잊혀지지
ㄷㄷㄷ
기술
깜짝
똑같
망쳐
먹고
박수를
이도
제로
치밀
특이
##받고
##가족
##거라
##엄마
##오글
##겠어요
##였지만
##쳤다
흥미로운
유쾌하고
즐거운
레알
못해
뭐라
방법
웃김
인내
타이
할까
##간의
##하겠다
##미가
##었을까
좋았을
우리의
인간이
손발이
끝이
봤더니
슬펐
않나
카리스마
##만을
##냐고
##했네요
##긴다
보고나면
##재미없다
한번쯤
웃음이
힘들다
시즌2
##시키는
그거
달달
로버
비판
스파이
영혼
이럴
좋지만
죽을
지겨
할머니
##이스
##버리는
##왜이
재밌다고
좋아하는데
##0000
알바들
감정을
개연성이
늘어
많아
이용
정의
##본영화
##해지
##키는
##ll
생각하는
##연기도
들었다
살고
야동
커플
##영환
##것들
##소설
##려나
##ov
##드립니다
##식의
##유치
##느니
평점보고
나오면
이제서야
##재밌다
##ㅠㅠㅠㅠㅠㅠㅠㅠ
김민
보인다
잠깐
좋게
참으로
포르노
##긴한데
##애들
재미와
유치함
짜증난다
행복한
역대급
스크린
6점
가벼
교육
남편
넘치는
대중
모를
아동
악마
없었던
챙겨
패러
풍경
##라가
##아버지
##것만
##정은
##체가
##버그
##임을
좋았지만
하나의
이유를
모르겠지만
주성치
개뿔
김수
많고
못한다
반개도
안본
않을까
움직
이소
주말
##용으로
##했나
##갈수록
##갔다
이런영화를
감동의
다시는
좋았으나
보여주고
어린시절
시간가는줄
멋있다
못생
보며
아닙
어지
##로만
##요일
##자나
##대를
##겠습니다
##부족
##엇다
##VD
지루했다
작품은
명작이
유치하다
##시간에
무섭지도
잔인한
좋겠어요
강력
개막장
관한
둘이
아기
착한
##테일
##소리가
##했어
##니깐
##버스터
재미잇
사람들의
감히
겨우
기발
깨달
대본
대해서
따로
보통
봤을때
여태
올려
응원
이민
인기
##살다
##야말로
##적은
좋아해서
1점준
현실성
캐릭터가
그렇지
개연성도
연예인
21
무리
빌려
신비
에서
예뻐
일품
자주
##받은
##아주
##사이
##사수
##년전에
##루스
##함은
##먹는
##주기도
##명을
##캐스팅
장르가
중요한
다큐멘터리
내면
동성애
드림
만나
범인
올리
욕망
죽이고
##없네요
##그렇
##되었다
이해안
보여줬
가슴에
지나치게
그건
똑같은
볼수있
세련
아픈
아예
영어
##기에는
##om
##였고
##캐릭터
##괜찮
영화제
긴장감이
느껴진다
웃기지도
왜이래
말도안되는
레전드
담아
당연
설득
어쩜
일이
잘하고
점수가
젠장
힘이
##기다
##비디오
##있나
##와의
##그대로
##감도
##놈들
##♡♡
평점조
##들이랑
10점을
모르게
남자주인공
있었지만
보지마라
199
그녀의
초등학교
DVD
데이
도전
드립니다
떠올
몇몇
색다른
없지
짜임
클레
##요소
##했다고
##평점이
부족하다
노래도
답답하고
진부하고
이쁘다
새끼
숨겨
심하게
양심
없어요
제시
하늘
##운드
##하던데
##지말고
##근데
##보네
##버림
스토리의
##들이나
감동적이다
##보다도
전개도
문제가
ㅋㅋㅋㅋㅋㅋ
류승
빈약
삶에
싶을
여름
우려
인해
조니
할리
##라인
##토록
##해진다
##얘기
##되네요
영화네
재미없게
한국영화는
인상적이
가치가
전설의
영원히
0점이
간다
바꾸
비밀
뿐이다
수고
야구
제임
##기분
##성의
##속의
하는거
주인공은
원작이
##장면은
괜찮은데
자신이
보았습니다
안타까운
40
변태
보자
봤을
상관
성격
이것이
##역시
##저도
영화보면서
모두가
싶은데
소름이
##지도않고
거기에
높게
못함
속에서
오로
테러
화끈
##도는
##있어서
##상황
##생활
##레딧
##언니
생각함
연출과
보여준다
정도의
잼있어요
재미도없고
##000
작가님
한심한
유명한
감흥
그만큼
그당시
달라
대화
돈을
미스터
베드
없습니다
위해서
이끌
짝이
해라
##로써
##동생
재밌던데
내가본
있는지
ㅎㅎㅎㅎ
##지마세요
아름다움
관객을
여러가지
뛰어넘
알겠는데
공짜
비하면
심오
알수
어두
의리
인디
##려다가
##머리
##비가
##문제
##원의
##씬이
##겁니다
연기잘
아까울
막장드라마
오랜만
모르겠음
자신을
오래된
##것같아요
이래서
기회
말아먹
방영
보려고
있구나
잊지
작위
첫사랑
해결
##우가
##만은
##음이
##포터
##신분
##답답
##5년
최고임
다시보고싶
나오지
##사람들은
분위기가
##♥♥♥♥
실제로
깨닫게
볼때
블록
사진
살면서
신고
애들은
치고
##인과
##이들
##사건
##러워
##무지
##연이
##그리
##니당
##봤지만
마지막까지
명작입니다
수준의
세상을
답답한
시청률이
예쁘고
감명깊
패러디
제임스
받을
심지어
안쓰
집에
최초
##기지
##이기
##추기
##세기
배우를
하나같이
반전은
M창
sf
둘째
무술
배역
보다는
안볼
유지
장애
전율
조작
최민
충실
한숨
##인것
##보니까
##았을
##설정
##하고자
##하는건
결말을
여운을
잼있다
킬링타임용으로
두번째
나머지
결코
남은
낮게
만한
볼거
빠진
않네요
있었는데
##은영화
##남는
##장을
##래도
##능력
##주가
##부작
##바이
##눈물
정말이지
이런건
##사람들이
이상하게
가슴을
떨어진다
2편은
어쩔수
결정
단편
부자
분들은
선동
안습
열받
울컥
잔뜩
잔혹
핵노잼
##라기
##아나
##년의
##했으나
##상은
##심으로
##겨서
##멘타
기대이상
소재도
시리즈중
노래가
##감독이
훈훈한
최근에
죽는줄
에피소드
70년대
구성이
기자
낚시
다이
도망
사고
살려
어째
오빠
잘어울
죽이는
##때까지
##소녀
##보자
##re
생각나서
하는게
여자의
만들어도
억지스러운
훌륭하다
어이없
##좋아하는
기다려
다양한
짜임새
기준
모험
아래
자식
집착
하네
##인들이
##리카
##미네
##치가
##트의
##통령
##티브
생각할
생각하면
##다는거
##다는걸
##인데도
아무런
무엇인지
무서워
ㅉㅉㅉ
비디오로
시즌1
느낄수
식상한
감정이입
스트레스
답이
등등
무한
부실
브루스
소소한
스페
연극
질리지
##장난
##역사
##해주세요
##왔다
##계속
10대
만들다니
처음에
20대
20분
극장가서
몰입도가
당신은
##스타일
스티븐
아닙니다
디테일
매일
뭘까
봅니다
봐줄
위로
장국
정작
지났
찍어
한명
할수
##나와서
##드시
##종일
##게요
##세포
영화자체
최고였다
연기력은
자체는
크리스마스
갖고
고맙
담배
대놓고
열정
웃고
잼나게
제외
팬이
헤어
##이었음
##지면
##르게
##좋음
만들면
별로임
느낌의
짜증나서
따뜻하고
시청자
돌아가
나쁘지
14
끔찍
다를
다루
바랍니다
서부
수많은
안에
야한
언니
이드라마
제니
탄생
해석
했으면
##는대
##어여
##얼굴
##감은
##력을
##씨는
##영화입니다
재밌을
재미없었다
이야기는
원작에
한번도
흥미로
그저그런
추억이
##레이션
지나도
느꼈다
5분
길게
꼬마
다크
다섯
비행
빼면
손에
재능
형사
효과
##만다
##것같은
##로드
##극장
##건만
##1점
재미있습니다
명작을
의미가
약간의
어설프고
살다살다
50
거부
끝났
낚였다
유아
##때문
##같고
##하군
##지요
##시즌
##퓨터
영화와
한국인
반전을
보지말
##파이어
소중한
거짓말
블록버스터
22
국가
달리
데리고
부부
사투
있던
주기도
파워
##이였다
##서는
##장한
##잡고
##해주고
##형래
##형님
##관람
##편은
##애가
##강추
##빼고
진짜로
생각했는데
감동은
처음에는
##없는영화
매력을
많은걸
##ㅎㅎㅎ
1편이
1편은
막판에
클레멘타
##미네이터
개념
넘게
놓고
당연히
듣고
많아서
신의
안된
예능
이병
조카
혹은
##기전에
##든지
##함의
##과서
##부를
##번은
##레인
##신을
##티즌
##박한
영화화
아니야
연출은
##배우가
##만큼은
##ㅜㅜㅜㅜ
역사를
주제를
엉성하고
유일하게
새벽에
특수효과
##스릴러
로버트
가르
그자체
나에겐
내게
들고
만남
먼가
못봐
뭐하나
본지
살린
시끄
아내
웃겼
이야
이라는
정확
주기
##나네
##지다
##누나
##되면
##웠지만
##줄이야
##묘한
이런영화는
##적이지
##나오고
##생각없이
살아가는
##내용이
배경음악
엄마가
어느정도
집중이
##인줄알
소설을
여주가
다운받아
본방사수
강한
근래
독일
러시아
만약
무료
보다니
시키
적당히
정우
짧은
케빈
하아
형님
##성과
##리면
##거든
##루즈
##어용
여자주인공
시리즈는
부분도
어울리는
태어나서
제이슨
이소룡
조니뎁
44
뭐니
보던
본게
생활
애기
우뢰
으리
이보다
일깨
잼잇
정체
조절
틀어
하여
##받는
##아쉽
##하길
##로의
##면에서
##대해
##있었다
##겠다는
##복을
##웠어요
영화인가
##으로만
최고로
감독을
보기에는
영상이
많은데
떨어지고
아름답게
만들었는지
교훈을
한편의
케이블에서
b급
가지
감각
김혜
때려
명화
목숨
배트맨
봤을까
스텝
언젠
적어도
##라의
##아는
##해지고
##제로
##배경
##어리
##어버린
##상에
##en
##vd
##zz
##냈다
재밌다는
생각으로
배우들은
이상의
영상과
나름대로
친구가
##부분이
ㅋㅋㅋㅋㅋㅋㅋ
좋겠네요
돋보이는
참신한
부모님
그립다
가벼운
교과서
그야말로
낚였
동시에
디워
별반
아버
안가
임팩
참나
폭풍
하다가
##정의
##개는
##어가는
##버려
##신은
##바로
##웠습니다
##엇는데
##팔이
##커플
영화만
##영화인데
마지막이
봤는데도
한국에서
##배우들의
봐도봐도
아쉽지만
웃기다
##해야지
엔딩이
이딴걸
포스터가
여러번
##거같아요
놀라운
말하고자
일부러
마이너스
1위
be
내돈
동양
로코
머리가
본거
빵빵
수입
심형래
쓰고
앞뒤
익숙
적절
짜집
첨엔
터미네이터
플롯
하길래
##리네
##야할
##짱짱
##오브
##드를
##치노
##했지
##상의
##덕화
##피스
##갑니다
##빠진
##하고싶
배우도
재미없어서
하나로
한국의
10점주는
이해를
여자는
주인공들
아까웠다
인생에
##감독의
어색하고
집중해서
단순히
초딩때
피해자
쓸데없이
낮네
됩니다
두려
또다른
새로
쓰는
이다
이따구
자동
잠시
중에서
책을
##인도
##이쁘
##음을
##러스
##래곤
##ut
재밌어서
내용과
기대했
액션을
괜찮음
장면도
모든걸
재밋어요
가족의
##건가요
잘봤어요
##년도에
특별한
숨겨진
감안
다신
담겨
따분
싸우는
아우
애매
영향
위험
읽어
있네
잘하는
중학교
즐겨
컴퓨터
케릭터
프레
##이제
##이였
##점에서
##리며
##시오
##보이는
##있습니다
##겠죠
##그만
##ver
너무도
##으로는
별로고
이상하고
있다니
찾아볼
여러분
궁금하다
볼수있는
결론은
아류작
해리포터
제니퍼
6점대
그동안
못하다
받은
주지
주윤
추격
##는듯
##이어
##이렇게
##나니
##다큐
##it
##도아니고
##쟁이
##직한
##긴하지만
##문화
##es
##봤네요
##중훈
##쓰고
##선생
##잖아요
영화같
##는데도
##하는영화
아니라고
괜찮다
출연한
귀여워
여주인공이
내생에
놀랍다
주윤발
3번
개성
갠적으로
남네요
낮지
망한
바이
바다
봤네
실력
싶어요
유발
자세
착각
힘내
##하러
##데이
##시면
##도를
##오오
##했을때
##취향
##악한
##프닝
##후의
##ㅋㅋㅋㅋㅋㅋ
배우는
아이들과
괜찮았다
만든영화
짜증만
시나리오가
주제가
##하자는
누군가
인터넷
1인
dvd
you
갑니다
같고
과학
꽤나
끼워
낮아
배신
부르
손색
애초
이은
중독
지겹
하하하
확인
흑인
##정화
##보지
##있네요
##드리
##버스
##노래
##햇다
재미로
아니지
다시보니
보기에
짜증남
매력적이
제목만
잼있음
아쉬움이
##아까운
##전개가
유일한
고등학교
우뢰매
C급
거북
나랑
난잡
남기
높아서
달콤
매니아
몇년
반드시
부탁
사운드
애국
자랑
중2
책임
추리
호기
화장
##기까지
##아치
##프다
영화인지
##영화보다
시간아깝다
최고의영화
여자들
일본은
소재와
##스럽지
##만들어
##어야지
##고싶은
한국영화의
전체적인
영환데
오랫만에
장국영
30년
따위
말았
서울
서양
않아서
유럽
탈출
편안
하품
한다는
홍상
##만도
##만하다
##리한
##한국
##스키
##함도
##여행
##드로
##뻔한
##끝까지
##낸다
##었다는
사랑해
지금의
##에게는
이해할수
공포물
마음으로
1편보다
수작이다
전쟁의
불쌍한
예쁘다
리얼리티
혹시나
관련
낮다
네티즌
로빈
뭥미
미쳤
밀려
박중훈
보았는데
분들이
안될
에효
이준
있다고
클래
판단
했음
##나네요
##하더라
##치곤
##강호
생각도
사람도
이게뭐
나오네
10점이
아깝고
##부터가
아무도
불쌍하다
불편한
잊혀지
일깨워
공간
다보고
대통령
멋있는
실험
싸움
아들이
압도
엑스
웃으면서
위대
이토록
타고
폐지
##성기
##is
##미는
##제가
##었구나
##모두
##게임
##일듯
##속으로
##하는것
감동받
사랑해요
액션과
1점은
여자친구
장면을
##연기는
현실이
나왔다
##♥♥♥
몰랐다
후속작
강렬한
어우러
꼭보
끝에
마약
배급
빵터
아놀
아진짜
외로
자본
저급
프리
##같아
##자와
##있던
##개가
##왔는데
##싸움
##후반
##느껴
##혼자
재미없다고
시간때
시간만
시간에
인생은
이제는
##메이드
잔잔하게
아까운영화
어른이
ㅠㅠㅠㅠ
##하지마라
극복
꿈꾸
나이가
도무지
되네요
땜에
리즈
맞춰
보내
빵점
삶이
싶지
아냐
안봐도
없게
없었음
이성
인형
진리
호구
흐르는
##인건
##으려고
##라노
##이도
##은듯
##하거나
##지현
##적임
##민이
##여운
##매력
##주일
##더빙
##중에서
##선을
##줄은
10년이
짜증나고
봤다면
떨어짐
사실을
만화책
##OOO
실화를
##보고싶다
다르게
희망을
2탄
기존
당황
루즈
멋지고
못미
본건데
빠른
알겠다
왤케
우연
임창
장진
최소한
평균
하하
하정
희대의
##이여
##리나
##또한
##웃김
##드만
##진심
##죽는
##싫어
##패스
영화이
사람들에게
다시보고
##는거야
영화라니
영상미가
쓸데없는
것에
그것이
꼭보세요
나레이션
다세포
맛이
무난
무게
묻어
민폐
반담
받는
부정
사무
소피
안들
없나요
이수
잊고
정상
##때매
##으신
##은거
##지나
##구성
##스크
##어이
##as
##12
##엇음
마지막회
기억나는
20년
재밋음
모르겠네요
궁금해서
얼굴이
##하지않고
사이코
##그래도
허술한
스포츠
이도저도
2번
of
각색
개노잼
극단
무너
뱀파이어
생긴
아파
안간다
열연
울면서
울리는
줘야
집어
한개도
헛웃음
황당한
흑백
##인들의
##이에
##이프
##아저씨
##가에
##사에
##지네
##전이
##전을
##들한테
##스에
##스포
##보영
##보내
##있을
##주면
##세여
##안됨
##식은
##중이
##림이
##굿굿
내용인지
재미있는데
감독도
사랑합니다
아무튼
짜증이
스릴도
억지감동
왜이러
영화였음
귀엽다
개그맨
영원한
하나하나가
할리우드
이병헌
16
9점대
가고
기타
김태
김치
끌고
냄새
부담
선물
어떨
여친
줍니다
짐캐
컨셉
폭발
흡입
##사와
##들여
##테러
##잡을
##해선
##자들의
##못해
##트를
##부는
##부로
##습니까
##버릴
##희가
##차별
내용에
내용의
##같은영화
일본의
볼만했다
현실과
인간은
시대에
이름을
자극적인
이뻐서
ㅠㅜ
김희
나무
달려
담담
대신
때마다
맞지
몽환
뭐하는
박수
별하나
빛나는
빨갱
사상
예수
오브
요새
으로
읽고
저평가
즐길
첨부터
키스
평소
##인지도
##때는
##아쉬
##리와
##장의
##출연
##뿐이다
##졌음
##므로
이런류의
작품입니다
한국판
10점만점
##했다면
괜찮고
괜찮았는데
반전에
정도면
전개와
미국의
세상이
들어가
설정이
잘못된
어쩌면
뜬금없는
Good
개콘
고양이
그것을
글고
나네요
도데
두근
드디어
듭니다
망치
박신
받고
밤에
벗어
생에
선정
수면
어둡
잤다
장동
좋다고
탁월
파괴
할아버지
허허
##라라
##아내
##들로
##개그
##주연
##부가
##게하는
영화나
생각난다
##었다고
감독과
기대없이
유치해서
정도가
##기도하고
제목을
언제봐도
점수는
포스터만
이름이
다르다
가득한
평점조절
공짜로
걱정
고어
고뇌
돈내고
드래곤
맞아
바탕
본듯
없으면
왠만한
절망
찍고
한방
혐오
##리네요
##할만한
##들끼리
##구가
##도의
##위에
##대단
##루토
##허접
##있지만
##진이
##쓰는
재밌었던
최고봉
아깝네요
매력에
인생이
시작부터
장난하냐
포스터에
믿고보는
살인마
어렵다
ㅎㄷㄷ
개똥
겉멋
불가능
빛을
세번
안좋
암걸
없다고
오우
오프닝
웰메이드
자기가
잠이
적절한
줄리
지겹다
하시
환경
##나도
##가리
##납니다
##였으면
##원은
##마자
##유리
##히고
영화야
재미있어
마지막엔
##ㅎㅎㅎㅎ
봐야지
작가의
##감독님
당시에
않았던
##거같음
내생애
역겨운
자동차
25
가정
개나
과대
깊게
늦게
담백
뒤에
라스트
망가
망친
몰라
사용
안보는게
왜곡
원조
유행
재개봉
적당한
조화
죄송
##우의
##이든
##든가
##나의
##남기
##불허
##의를
##자들이
##무시
##ow
##어디
##님들
##분은
##분들은
##트는
##했을까
##애들이
##임에도
##딩때
##느끼
##몰입
##줬다
##둥이
##ㅋㅋㅋㅋㅋㅋㅋ
##배우의
##스러워
추천하고
공감도
그렇지만
무엇인가
##아까움
탄탄하고
라이언
전반적으로
은근히
제시카
못봐주
녹아
동네
로드
말자
말투
무겁
무거운
뭐고
반대
유덕화
일베
최소
피터
##아빠
##서도
##리엄
##없지
##ic
##시청
##준호
##드림
##더더
##감과
##al
##저리
##진않
##웠고
##2년
##답니다
##께요
##3년
##싫다
##7년
##슨이
기대가
나오는데
느낌은
영상도
##재미없음
가족이
##는거지
요즘은
친구랑
##내용도
배경이
TV에서
진지하게
다행이다
외계인
애초에
가히
강간
갖다
나중
데뷔
도시
매미
명복을
무간
뭐라고
베리
비호
알파
양아치
어리
어쨌
인종
일으
천국
파격
하도
힘을
##하균
##할지
##없나
##위원
##모로
##까요
##주기
##되게
##빨리
##났음
재미있었음
재미있었습니다
볼만합니다
공감할
어디로
조금은
##생각이
점수준
전쟁영화
시대의
스타뎀
만들었을까
##ery
질질끌
못보겠다
제작비가
풋풋한
무언가
어두운
짜집기
가수
김지
깡패
담긴
디카
먹는
버려
싶었다
안어울
안무서
앞에
어거지
없냐
잊을수
좋을듯
짜릿
황정
흔들
##아노
##가슴
##점수
##로로
##질않
##대고
##od
##ot
##있지
##먹을
##판이
##되나
##란티
##았으면
##발견
##죽박
##롭고
이해불가
아깝네
느낌이다
괜찮게
##배우들이
실망이다
엄청나게
대사도
봐야하는
2편이
##아닌가
##모르고
100점
의도가
도데체
##죽박죽
강동
거품
기획
단어
담은
만난
매끄
목소리가
보라고
불안
아담
영구
웃기는
이만한
절로
절대로
정보
즐기
축구
트랜
##간에
##우스
##아지
##하디
##하니까
##적으론
##질이
##자리
##겠는데
##관에서
##nd
##일을
##법한
##프리오
##졌던
##슨의
##웨이
##앗다
##낮은
##졸작
드라마의
만들어서
기대이하
##라는게
않은데
시작해서
무섭고
##내용인지
198
당신이
소중함을
보시면
가까운
둘째치고
홍상수
그들이
깨알
늑대
말그대로
명불허
실감
엑소
역량
이동
이란
이렇
잠들
점이
좋네
죽고
찾아서
##같아서
##고생
##지에
##스케
##있으면
##즈의
##했었는데
##물로
##형제
##되는데
##선이
##좋았다
##11
##프고
영화평
사람이라면
사랑하고
마지막장면
없는게
연출력이
명작은
아이들의
짜증나게
##지않는다
캐릭터들이
인상적인
유쾌하게
##레이드
교훈도
홍콩영화
진지한
만점에
오글거리는
요소가
거기다
말고는
망할
명장면
미녀
버리고
분량
브래
삶과
안본다
졸업
하며
한시간
형제
##인게
##받을
##으리
##하실
##장르
##적이라
##시원
##위한
##여진
##그랬
##더맨
##았네
##중반
##랜드
아니었다
##있는영화
괜찮았음
정도는
한번더
수준을
감동적이네요
더빙이
충격적인
순수하고
오글오글
##으면서도
산만하고
선생님
설득력
류승범
화장실
##란티노
객관
넘넘
말아야
매번
부산
속았다
스피
이지
자고
잘한다
줄수
진한
치유
포인트
풍자
후에
##때도
##라에
##이름
##성우
##가네
##야한다
##들러
##정쩡
##오래
##모를
##먹은
##공감
##신의
##일의
##20
##답게
##뚱맞
##졌어요
##랐다
영화예요
드라마입니다
좋았을텐데
아이언
공포를
아무생각없이
보기가
만들어라
보게된
배경으로
귀여움
##쓰레기영화
흘러가는
다운받아서
아프다
##ovie
90분
갔다
건가
격투
고독
공중
길이
나을듯
나루토
도둑
뒤죽박죽
묘한
무식
뮤직
변화
비록
소통
시종일
신하균
암울
예측
첩보
키아
한지
##이죠
##같아요
##지부
##다르
##도로
##봐야지
##비슷
##어의
##까지만
##란한
##됐다
##워즈
##일러
##셔야
##잖은
##귀여
영화속
최고최고
괜찮네요
현실은
만들어낸
조금만
떨어지
어이없다
않았지만
이것보단
보았던
##재미있어요
생각해보게
가능한
아마추
뜬금없이
블랙코미디
하이틴
2는
EBS
과정
난리
단체
모욕
뭐임
보단
볼려고
빼곤
싶어서
싶었던
아바
애틋
어정쩡
이별
잊지못
절제
조차
중학생
판타
한가
##것에
##없을
##제작
##스와
##자로
##보긴
##함께
##민의
##갈때
##필버그
##잇는
##탈출
##왕국
##승전
##줬으면
##늦게
영화인줄
최고네요
좋아하지만
10점준
##정도는
애니는
모습은
흥미를
기분나
뻔한스토리
느끼고
알았음
2점부터
허무한
나머지는
소장하고
세월이
놀랐다
부자연
알파치노
말씀
모른다
배꼽
별거
보라
소화
송강호
심장
안좋아
애잔
왔습니다
왠만
우디
우선
잠을
죽이
쯧쯧
찾는
칭찬
한순간
향연
호불
##살아
##기와
##장애
##역할
##시가
##에다
##증이
##웃기
##못한
##분들이
##치의
##부의
##코메디
##프레
사람들을
다시보기
액션씬
모르지만
아이디어
현실적이
이상해
소재의
##하기엔
##드라마가
연기력에
캐릭터도
최악의영화
##생각을
어이없음
장난치
답답하다
결국은
만들었나
영화라서
##하시고
당신의
에로영화
##시대에
영화보다가
형편없는
감명깊게
비호감
디카프리오
명불허전
시종일관
th
고문
권상
기괴
끝나서
나음
남의
놀란
다녀
닥치고
따름
밑도
바닥
반영
볼까
상징
선사
소년
승리
어떠
엽기
원주
음식
음향
이승
차이
창피
하기
##살이
##만족
##영의
##할뿐
##소가
##거같은데
##제목
##스틱
##보구
##보네요
##모든
##못하는
##타고
##분위
##상영
##ay
##았네요
##노답
##유발
##초반
##1년
##후회
##9년
##까지도
10번
##라고요
별로였다
##지않다
코미디영화
개봉당시
느껴졌다
세상에서
장난하나
언제까지
ㅋㅋㅋㅋㅋㅋㅋㅋ
좋겠습니다
##재미있게
멋지게
그림체
거지같은
미소가
공유
구성도
끝도
난무
던져
데스
리암
맞추
메이
방해
보이지
빕니다
삭제
신은
쓸쓸
아만다
없었
에라이
엘리
왔다
잼있는
절정
정당
주온
총체
테이
평화
피아노
했더니
##살인
##이리
##나간
##아무
##다음
##로그
##시기
##자면
##볼만
##볼수
##개를
##분한
##치를
##치도
##편을
##마이
##신분들
##좋게
##끝나
##8년
##예진
##따뜻
##범죄
##쥬얼
##하고는
재미있을
재미없을
장면들이
##다니는
가족영화
무섭게
강추합니다
부분은
있었으면
##라이즈
##라이언
알았네
한심하다
메세지
12세
##ㅋㅋㅋㅋㅋㅋㅋㅋㅋㅋㅋㅋㅋㅋㅋㅋㅋㅋㅋㅋㅋㅋㅋㅋㅋㅋㅋㅋㅋㅋㅋㅋ
섬세한
데이빗
키아누
ㅈㄴ
국어
그가
니가
대학
똑같이
로망
마시길
맡은
별점이
불과
살리지
생겼
수록
요리
운명
워낙
이나
잘보고
재방
지옥
질리
콜린
평을
##때가
##기법
##라지만
##없게
##없어요
##도에
##거리가
##정한
##의식
##억지
##겠어
##겠다고
##분의
##트로
##물의
##였나
##채널
##애들은
##신도
##꺼면
##석규
##le
##곳에
영화적
아니잖아
기대하지
##정도가
##을까요
음악은
전개는
캐릭터들
개봉한
시리즈의
##ㅜㅜㅜ
엔딩크
빠져서
상황을
##그런지
잘만들었다
어설프다
슈퍼맨
##기억이
오로지
하정우
1회
17
to
공룡
굳굳
긴박
낫겠다
났다
대결
말인가
버린
본격
브라
성인이
손가락
신인
싸우
오지
올드
원숭
이종
인류
일주일
잃은
전화
좋지
직업
페이크
허나
##간히
##이요
##가의
##전의
##해져
##울뿐
##대에
##어린
##어색
##듯하다
##뻔했다
##집어
##ed
##심에
##진창
##경이
##바라
##햇는데
##느냐
연기하는
드라마다
보는것
다시금
마지막은
이야기의
재밌게봤어요
이영화의
##정도의
아까워서
아무나
이상은
모든것이
필요가
##00원
살아있는
보게되
행복하게
스타워즈
이미지
독특하고
1등
bad
movie
같았다
건질
게스트
끝을
능가
다이하
동영상
드네요
마찬
마법
머릿
먹칠
못본
못만들
밝혀
부활
불법
빠지는
싶습니다
에드
역겹다
차승
타란티노
토니
펼쳐
##인에
##때부터
##리스트
##할수가
##ig
##ck
##스톤
##비해
##있냐
##놨네
영화일
드라마로
드라마에
드라마도
드라마중
보는거
이거보단
##하나하나
대박이다
가족애
긴장감을
미국식
감동적이에요
귀여워요
있었고
오래전에
돌아보게
캐스팅이
##것같네요
삼류영화
ㅋㅋㅋㅋㅋㅋㅋㅋㅋㅋㅋㅋㅋㅋㅋㅋㅋ
아버지의
누군지
잘생겼
스파이더맨
바탕으로
is
간지
것인가
극중
담고
되돌아
마냥
멋있고
명대사
모니
뭐여
민주
새삼
섬뜩
성형
쉬운
억울
열라
오는
왕조
우린
태국
한동안
한석규
##것같은데
##수선
##잡는
##소름
##웃겨
##태현
##어스
##못하고
##님은
##안돼
##놈이
##력에
##선택
##바닥
##존나
##후에
##졌습니다
##갔는데
영화지
지루하기
사랑스럽고
아이들에게
여자를
주인공들이
##연기를
공포가
보여줄
##하기에
영상은
실망이
캐릭터를
관객이
지루함을
역사상
충격적이
CG가
성룡의
의도는
환상적인
시도는
말이필요없다
깔끔한
파워레인
아바타
관심이
길을
낮네요
당장
되는데
드니
레옹
마녀
말은
모아
뭐랄까
뭐하자는
베이
별한
보려
시험
아카
안나온다
여기에
올레
위트
조낸
지극
첨이다
틀림
하다니
했습니다
했으나
##인걸
##으러
##으셨
##가운
##구라
##불쌍
##주행
##상태
##씨도
##희의
##꺼야
##롭게
##쩐다
##★★
영화란
재밌었
최고라고
생각만
재미있었는데
##하지말
1점이
##부터는
만든거
공포는
유치해
유치찬
제목에
##점이상
##한테는
##치고는
여러모로
영화라지만
##재밋게
엉망진창
메시지
미스캐스팅
조잡한
박진감
우려먹
중2병
그이상
내일
두시간
때는
마블
맞나
멋져요
무의미
미션
민족
박보영
보구
상대
숨막
스필버그
시켜
쏟아
어딘
연상
오직
오리지
울었어요
의상
이라고
있으나
자아
쩔어
킬러
핸드
##기위해
##나이트
##아름
##아직
##리는데
##한편
##미를
##비에
##말을
##종영
##였어
##더군
##관을
##관객
##집에
##덕에
##광고
##광구
##렸던
##켓몬
감동입니다
만들수
사랑스럽다
시간도
1점을
아이디
가장한
인간들
##나오네
제목은
개인적인
제대로된
남는게
좀비영화
소름끼치는
이루어
니콜라스
빨갱이
가짜
것만
것들이
괜찬
납득
내시간
매주
박찬
본질
비쥬얼
성의
심하다
싶다면
온갖
웃을
작화
전도
좋으나
지키
한효
혼란
##이었던
##리면서
##장에
##역을
##없었다
##미화
##미스
##미의
##표정
##시나
##조금
##스텔
##위가
##드네요
##매이션
##타쿠
##연의
##주지
##끝나고
##100
##럽지
##회가
##높은
##승우
##영화였다
배우들을
아이유
극장에
가족을
모습에
잼있네요
정신이
1편에
초반엔
역사에
설정은
보지마셈
충분한
이것은
##좋은데
풀어낸
기발한
왕조현
걸까
그는
글을
낭만
대부
듣기
등록
보아도
블루
소유
신이
실사
안보면
않습니다
어차
연관
우는
웃었다
이쁨
잡아
재앙
정사
짜리
하지마
해야지
했을까
황금
후하게
흉내
##화이팅
##가면서
##고도
##없는데
##천원
##조아
##달라
##제를
##래요
##보러
##었냐
##치면
##상한
##원에
##am
##줍니다
##힘들
연기자들
내용전개
이거보다
##으면좋
기대한
액션만
10점은
이영화에
남자는
##너무너무
캐릭터는
표현이
##던데요
시리즈를
아쉬워요
1편의
의미도
모르겠네
그리워
자연스럽게
##하자면
낮은지
만드네
미안하다
죽음을
그럴듯
웃겨서
##프로그램
15세
그려낸
거기서
안맞는
난해한
오그라드는
돈아까워
##학년때
정신병자
김수현
아기자기
점수준것들
감성을
과도
극혐
남성
누나
늙은
니네
뒤늦게
들게
때가
떡밥
마리
마다
마니
멋짐
보석
빠순
상태
설경
스토
스펙
안보는
안무섭
완젼
월드
이탈
진수
찍는
커버
한다고
##우리
##만듬
##가며
##사도
##시스
##브리
##질질
##제발
##스레
##보지마
##어를
##랑은
##모양
##동근
##치지
##새록
##ㅠㅜ
##크로
##번에
##마리
##맞는
##웠는데
##티가
##tt
##귀엽
##빼곤
생각은
재미없네요
쓰레기를
10점준다
아이를
주인공들의
이상하다
##하나요
##재밌어
아니라면
어디에
##이라는게
웃음을
분위기는
문제는
몰입도도
##느낌이
참고로
안나옴
ost도
어설프게
##최악의
이하도
세련된
뛰어넘는
브래드
엔딩크레딧
마찬가지
어차피
4편
가만
감이
그로
나고
넘어서
만났
말해
머야
멋져
바라는
봤나
소소
속이
수는
숨은
앞서
어땠
옆에
오해
원하는
일을
준비
줄이야
짱이다
찬양
캐릭
한거
##살때
##인영화
##자인
##어어
##트릭
##주는데
##방식
##dd
##마르
##았나
##워드
##발이
##bc
##빠져
##6년
##맘에
너무하네
연기만
이런식으로
스토리로
보고나니
시간아깝
별로네요
여자들이
전개에
##스러웠다
억지스럽고
표현할
긴장감은
떨어뜨
알바가
보고싶은데
무서움
인상적
시대가
이딴게
2편도
##시키지
킬링타임용으로도
사회적
2014년
##들만의
진실을
상처를
고등학생
아놀드
지극히
1개
com
개꿀잼
거듭
고스
군더더
그외
너희
놀래
니들이
도와
돼지
런닝타임
레오
말아
명성에
모방
못하겠다
문득
미학
미쳐
반지의
벗어나
본것
생명
시골
안봐서
엉뚱
있긴
있겠지만
재탕
적나라
조지
졸잼
짬뽕
첨으로
클리
패션
하세요
하기엔
한줄
호흡
##가면
##가위
##사실
##하시길
##내지
##실히
##구의
##배는
##오고
##크루즈
##코드
##승헌
##찾아
##옵니다
영화감독
최고에요
스토리나
보고난
보고있는데
괜찮았
그런거
##연기에
##주고싶
추억을
##oooo
티비로
이것보다
##시키고
##모르게
알려주는
필요한가
두고두고
임팩트
테이큰
박찬욱
80
MB
거장
고증
고양
꼭봐야
나열
날아
높지
들어서
박시
반응
비정
사과
상어
새록
소지
시체
실수
쏘우
어수선
없던
여신
역겹
외면
의해
입장
있냐
재수
지독
쩌는
참여
코스
클로
했어요
했는지
##이영화
##본색
##나가는
##점으로
##내서
##시의
##추는
##추억
##달라고
##스턴
##있었는데
##여주
##작을
##극을
##물에
##더라고요
##판을
##공주
##저것
##바람
##져야
##엇어요
##영화제
##하는것도
감동이다
그냥저
10년전
사람과
기대했던
##연기력
##하기가
음악을
##재밌고
느껴지
나왔던
##할수있는
완벽하게
여주인공의
영상미와
어울리지
슬픈영화
2014
후반부로
후반부에
메세지를
러브스토리
미스테
다니엘
가시
각각
감성이
강요
공허
공연
국산
극본
눈으로
되면
모양
못해서
미야
미술
박평
불가
삶은
소개
소품
심사
안녕
않아요
애들도
엄정화
완죤
욕이
우왕
입장에서
저지
적은
전라도
좋더라
찾을
책으로
커서
포켓몬
해외
해요
##인지는
##운데
##으려
##아리
##아의
##하늘
##고한
##시네
##에다가
##보려고
##엄청
##분을
##였지
##원을
##셨으면
##절대
##저나
##좋네요
##입니까
##계를
##베이
##알아
##렸음
##☆★
##플린
##TV
재밌었습니다
##다는건
쓰레기는
시간은
액션의
하나는
하나가
이해도
괜찮았던
현실적으로
억지스런
##장면도
대사와
노래는
나와야
보게되는
완벽하다
지루함의
문제를
##것같음
19금
장르를
인물들의
여배우가
더욱더
크리스찬
그럴싸
심리묘
##마저도
이정재
클레멘타인
##스포머
8점은
구조
김명
깜놀
나면
농담
눈요
대학생
돈아깝
된장
로멘
머냐
모른
보이고
봤고
부러
분장
상큼
서정
센스
송승헌
아메
얘기를
언론
없어도
오인
와서
욕을
웃는
웬만하면
유승
음모
인가
있었음
작가는
졸리
주고싶
죽어
증명
지가
지경
차태현
치료
홧팅
##나라는
##영은
##사고
##하길래
##스카
##포인트
##개의
##드먼
##동이
##치다
##즈가
##얼마
##감한
##란히
##돌려
##낫다
영화같다
정말정말
##하고도
연기의
이런것도
쓰레기네
처음이네
처음본다
나오네요
아이고
유치원
##하기는
##였다면
인생에서
시리즈가
알바생
영상미도
시즌3
##지루함
평론가들
소리만
로맨틱코미디
싫어하는
##ㅇㅇㅇㅇ
##줄알았다
흥미롭게
아련한
심각하게
재난영화
오랫동안
아직까지도
밋밋한
기가막
이끌어
엑스맨
시간때우기
임창정
##라에몽
호불호가
원주율
40분
같지만
과정이
그나
기적
기법
남기는
넘쳐
되서
러셀
런닝
막상
멘탈
발음
방향
보겠다
뻔하다
색채
손꼽
신화
심장이
싶었는데
쓰러
아팠
열광
웃겼다
자리
저러
전지현
좋앗
초월
편의
편하게
피식
하긴
한정
해준다
했나
##가야
##지라도
##남을
##년만에
##면을
##해가는
##스틴
##포스터
##있을까
##개념
##어떻게
##여도
##형이
##되요
##통수
##맞고
##경을
##경찰
##일에
##께서
##렸네
##졌으면
##창시절
##팬이
최고인듯
스토리전개
사랑한다
기억난다
공포도
##사람의
애니매이션
만들어주
가족과
긴장감과
느껴질
##만큼이나
의미있는
살아야
영화였는데
시대적
힘들었다
들어간
사회의
가치도
완성도가
##줄알았는데
감동적입니다
레이첼
빠져들게
베드신
한숨만
아버지가
김희선
어쨌든
국어책
다이하드
그냥저냥
것들
고질
구혜
남친
다름
들이
딸이
만날
몰아
못하네
본능
브로
비참
소리가
수십
신세
안좋은
역작
연인
열자
오유
이태
이순
있었습니다
재방송
잼나
잼없다
적극
절반
주세요
주고싶다
중의
줘도
쿵푸
크레딧
팝콘
##성한
##데미
##리즘
##전은
##im
##로맨
##대기
##말도
##치만
##펙트
##극장에서
##원에서
##놈의
##일본
##알고
##덩어리
##랬다
영화들이
감독에게
사랑도
보는동안
좋아하시는
작품에
지금보면
느낌도
##라는걸
장면만
인간적으로
하고싶은
어디가
##생각으로
느껴지지
결국엔
개인적으로는
당시엔
역사적
진부하다
캐스팅은
캐스팅도
충분하다
감동도없고
하지원
나올까
이것저것
귀신이
영화인것
마무리가
취향이
겨울왕국
가슴아픈
고맙습니다
비행기
언젠가
트랜스포머
잊지못할
7점이
감수
건강
고소
고작
김윤
김선
깨끗
껐다
끝남
나을
내취향
마누
멀쩡
면이
비해서
생존
서스
쉽지
신세계
안가는
애가
야하지도
에바
연습
왕가위
욕심
웃다가
이어지는
인권
장소
장혁
정주행
조기
조아
찬사를
채워
처절
통해서
파고
편인데
한예
할때
##이래
##아이가
##하의
##하루
##하지는
##데렐
##점에
##리쉬
##il
##제대로
##보던
##했다가
##주네
##상과
##줘야지
##감정
##안에서
##번을
##진행
##케이
##넘치는
##목소리
##약한
영화볼
연기로
재미없었음
있는가
처음이
최악임
이렇게까지
1점준다
모르겟
아깝습니다
우리에게
현실에
몰입하게
##드라마는
애니를
재밋네요
대사는
1편을
세상의
##할수도
감동적이었다
OOOO
만들었냐
불쌍해서
##것같아
걸작이다
높은지
감독님의
##리의리의
아빠가
영웅본색
전편보다
메세지가
동화같은
나머진
느낀다
이기적인
이따위로
##이후로
전율이
다세포소녀
10점만점에
아이언맨
##지부지
총체적
A급
가난
간단
갖게
갖춘
귀찮
기승전
도움이
돈으로
듣는
뚝뚝
람보
마틴
모독
모순
목적
방황
배려
배드
버무
번역
보지도
빠질
빨간
상당한
손예진
십점
싶음
안다
안감
안겨
안봄
안나오는
약하다
여유
예뻤
오페
유익
이전
이중
제왕
지하
커녕
피곤
하니
학창시절
##아들
##것들이
##것인가
##것처럼
##없지만
##ct
##미도
##소리는
##시켰
##시킬
##구를
##디가
##보소
##트라
##군이
##극의
##물은
##세상
##뭐냐
##안된다
##봤지
##버튼
##진실
##않고
##멜로
##격이
##혀서
##깁니다
##믿고
영화같은
시간과
기대된다
##하지말고
만든건지
일본이
일본에서
볼만한데
매력적
인생영화
많은것을
##지않아
재밋고
부족하고
의미없는
멋진영화
초반에는
웃음만
허접하고
슬프네요
이딴거
##부분은
주연의
잔인하고
상황이
##하하하
오글거리고
바라보는
##애니메이션
그럼에도
할말을
가까이
러닝타임이
과장된
빈약한
다크나이트
드래곤볼
무간도
아마추어
유치찬란
##☆★☆★
감옥
개잼
거야
것과
관심을
괴롭
구경
그를
나아
낚인
놈들
니들
더더
돈만
동감
됐다
되나
따듯
로마
많네
말았다
명배우
무대
물어
미니
바란다
박정
반갑
받아야
백인
봤는지
솔까
알수있
욕만
용기
위안
윌리스
의사
이외
임청
정석
주먹
주관
지저
차별
첫번째
추가
커피
텐데
픽션
하드
한글
허탈
화질
흉내내
힙합
##이었
##이걸
##다리
##할순
##한텐
##cn
##면이
##거워
##제일
##러티브
##치기
##부에
##잘못
##et
##손가락
##절로
##코믹
##저기
##케팅
##죽이고
##듣고
영화랑
재미만
연기한
평점도
보고도
지루했음
드라마라고
사람에게
만들기
만들다
기대안
명작임
명작이라고
이야기도
공포영화가
현실적이고
##지않게
##는거냐
나와도
답답해
엔딩은
미친듯이
하지말
197
비교하면
오글거리
자연스러운
어쩌다
tv에서
식상하다
카메론
##하겠습니다
##공포영화
30대
##지말자
화끈한
심오한
영화자체는
사투리
정우성
영향을
오우삼
이탈리아
8점이
90
ㅜㅠ
가을
가야
가깝
경악
교회
그들을
나비
날려
남고
남긴
넘치
더러워
도라에몽
돈과
돈벌
로보
맞다
믿기
믿기지
배울
범인이
생기
어중간
이자
있어도
재치
적이
죽인
참을
팍팍
한쿡
한가지
혁명
흐지부지
흠잡을
흥분
##인해
##는것도
##이들의
##지원
##을지
##없습니다
##들어서
##실패
##id
##에대해
##요한
##비아
##자도
##보인다
##못함
##겠고
##줘도
##잘생
##뭐야
##봣다
##돌이
##놈은
##왔습니다
##진호
##답다
##예쁘
##쾌한
##센스
##십니다
##깊은
생각했던
##었다면
최악이
10점짜리
연출을
이야기에
일본인
원작과
##지않음
연기력과
자체도
어설퍼
우리나라의
안되네
만화를
만화영화
시나리오도
지나친
B급영화
##재밋다
여배우의
전부다
##좋은영화
##아닌데
2012
##시대의
의도를
관람객
설명이
우울한
미래를
굿굿굿
존경합니다
편견을
드림웍
영화제목
장동건
어떠한
60년대
개망
거다
걸로
공주
관대
그에
꺼져
끝은
끝판
넘는
눈치
단역
데미
덴젤
되야
되어야
드라
드물
따스
때도
못했던
받았다
버렸다
색깔
샤론
없애
엠마
엽문
욕나온다
윌리엄
의지
의한
이를
일찍
일어나
잘하네요
잼나요
종합
질문
찾기
초중반
최대
컬트
코드
터지는
토할
파라노
평론
해주세요
흘렀
##기나
##기보단
##이뻐
##나보다
##아냐
##같네
##가게
##하리
##하더니
##것보다
##들린
##현준
##구역
##자키
##녀의
##드립
##그렇게
##안되고
##판으로
##el
##왔던
##희는
##앞에
##ff
##혜교
##뜨고
재미나게
사람마다
지금이나
1점주는
재밌게봤는데
기억을
볼만해요
##사람을
현실감
다른건
소재만
보기싫
애니가
원작은
아름다웠다
여운도
스릴러물
나왔음
##아까워
만들었으면
불쌍해
상상력이
##쓰레기쓰레기
CG는
감성팔이
오글거림
웃긴다
알려준
예고편만
감동적임
##하셨습니다
떠오르는
타이틀
1점준것
예뻐서
힘내세요
클래식
수면제
클리셰
새록새록
소지섭
강하게
개발
결과는
기록
끝난다
낚여서
납치
노골
놓은
더럽
되어서
되었습니다
또보고싶
마구
말밖에
말하려는
망설
멀리
무색
미장
미이라
배가
봤다는
부드
빠지게
상실
성적
성찰
앉아
없었는데
여튼
우롱
이뻤
이혼
일관
잡고
재현
저게
점은
점에서
줄리아
지상
친일
하셨
회상
##같네요
##가니
##지환
##시네요
##조연
##짓을
##에로
##달아
##자꾸
##래셔
##보며
##허무
##오늘
##급영화
##더스
##방에서
##줘요
##니의
##니버스
##마무
##신기
##15
##언제
##효진
##써요
##뒤에
배우와
다시봤는데
아이와
아이들은
여자애
공포영화는
##하나도
##드라마를
매력적이다
한번씩
캐릭터의
코미디는
어디까지
보고싶네요
##고싶어
분위기를
힘들게
당시에는
예술영화
##보기엔
상영관
크리스토
안타깝네요
진행되는
훈훈하고
안타까움
분명히
인상깊게
안나오고
##새끼들
부끄러운
다큐멘터
##9999
믿을게
특이한
여태까지
이따구로
손색이
탁월한
한효주
군더더기
미야자키
##얼마나
300
70
7광구
강호
그들
그와
꿈과
나참
내고
달리는
돈은
때의
또라이
많음
면에서
명연기
모성애
반감
본인
봤지
불필요
살렸다
수사
시사
신데렐
싶으면
쓰나
않으면
않아도
앞에서
얻어
없으니
예산
왔는데
우승
유사
이영
인지
일생
정준
죽일
죽기전에
지는
지워
짱임
출발
캐리
티가
포함
학살
한대
흑흑
##데요
##리지만
##지르
##구는
##구먼
##거에
##거죠
##스코
##스에서
##릴때
##자에
##위를
##님을
##동화
##동을
##주제
##더러
##랄한
##니가
##판타지
##봤네
##일은
##잔인
##병맛
##22
##행복
##프리
##명화
##숙한
##괴담
##하고싶은
지루하지않
재미있다고
사람만
좋아하고
좋아하네요
작품의
기대에
없는듯
##사람도
20년전
##재미없어
##너무잘
##스러울
##주고싶다
대사를
노래를
##할수없는
어이없고
관객에게
초반부터
지루함이
귀여워서
주연배우
##ㄷㄷㄷㄷ
##10자
킬링타임용도
한계를
3편은
일어날
통쾌한
##마지막에
아픔을
복잡한
슬펐다
##00000000
김민종
강력추천
스페인
소피마르
엑소시
권상우
오인혜
구혜선
미장센
28
The
it
가라
개같은
고인의
골때
그시절
김정
나빠
대역
도중에
돈낭비
들지
또는
또봐도
록키
만세
만나는
머리를
멈추
몰락
못따라
반도
받았
법정
베트
보아
보낸다
비하
비중
빠르
사망
살리
숨어
스킵
승부
심한
안남
안봐
애정
애절
어마
어딜
에일
였다
우아
웃으며
원표
유령
유혹
장근
재발견
정통
증거
증말
짜맞
추구
크다
팀버튼
파이
하지마라
향한
홍금
##간이
##기술
##라나
##하구나
##들보다
##시를
##시나리오
##려진
##구리
##해줄
##비추
##함으로
##말까
##될듯
##였네
##감에
##크가
##심한
##봤을
##차이
##히히
##평을
##졌네
##CG
##놀이
##댓글
##덜덜
##솔직
영화찍
영화내내
영화내용
##하고싶다
최고인
생각나게
재미있어서
##다는것
좋아했던
일본영화는
남자를
반전의
필요없음
##는거다
잔잔하면서도
떨어진
따뜻해
무섭지
만화가
배경도
다큐를
##스토리도
여기저기
나올때
발연기에
##재밋음
평가를
ㅋㅋㅋㅋㅋㅋㅋㅋㅋㅋ
이번에
##모르겠다
##을수도
가치를
돋보인다
흥미진진한
불륜을
메세지도
외국인
메시지가
##최고의영화
미치도록
채널돌
조용히
##ove
##000원
말았어야
짐캐리
흡입력
뮤직비디오
고스란히
MBC
그나저나
0점을
1년
1탄
2가
24
♥♥
괴수
그대
그들은
길고
끊임
냉정
높네
더럽고
돈아깝다
두말
드문
들여
들어도
똑똑
만으로도
박해
보느니
복수를
본듯한
부각
불행
송혜교
싶지만
않네
애로
어떻
없구나
역쉬
연주
온몸
의견
인데
잃어버린
잼없음
저주
저희
저절로
전국
주목
줄거리가
쪽팔
태권
풀어나
##라곤
##가다
##가장
##하죠
##하구만
##지효
##할줄
##들이다
##자들은
##었을텐데
##타는
##냄새
##까봐
##군의
##긴장
##습니당
##끄는
##바리
##속을
##파서
##렸습니다
##34
##특집
##참고
##떨어지는
스토리지만
쓰레기가
##같은거
아이러
주인공을
이상함
이상으로
20년이
##스럽네요
필요하다
실망스럽다
추천한다
##스트라
##이란게
보고싶어
부분에서
졸작이다
설정과
주제는
영화중에서
영상미는
이쁘게
##거같아
에로물
만드냐
복수극
메시지를
남아있는
의외의
오락영화
싸이코패스
그지같은
고마운
지겨워
유지태
데뷔작
강동원
파라노말
5점대
in
ㄹㅇ
간첩
거냐
것들을
경의를
극찬
김구라
넘어가
노무
노튼
뉴욕
대실망
똑바로
만듬
명확
몸을
못주
번을
변호
보일
불면
사로
식스
알아야
양조
영광
예쁨
완성
울었습니다
웹툰
이겨
일일
임수
자위
잘해
전성기
정재
중년
중후반
쥬라기
직장
차마
총을
총알
총격
침묵
카피
클라이
클라라
태어나
표정이
하자
한장면
할수있
함부로
허구
##으세요
##이와
##이들이
##사님
##하겠지만
##하더라도
##리로
##한마디
##려야
##거에요
##여야
##상도
##상욱
##던거
##던영화
##줘라
##체를
##두사
##향이
##특히
##궁금
##훌륭
##힘든
##맹랑
영화계
너무낮
너무재밌
평점올
보고있는
아니냐
아니네
아니네요
사람들도
사랑으로
다시보게
나오다니
이영화보고
보여줌
현실성이
솔직한
수준이하
재밋는데
막장이
남는건
시나리오를
않았음
네이버평점
장르의
인물들
##재밋어요
여배우들
머리에
즐거움
##조차도
안나왔
전편의
아프리카
모자라
흐름이
퀄리티가
##가능한
시간아까워
비현실적인
깜짝놀
아동용
응원합니다
21세기
어우러진
어둡고
겉멋만
과대평가
매미OO
인종차별
에드워드
아카데미
런닝맨
1개도
2차
3d
3시간
60
KBS
ㅂㅅ
가식
강아지
강지환
과정을
구지
권력
김영
까는
낚이지
날라
내놓
내세
더러
뛰쳐
맘이
머가
머지
멋잇
모호
물건
미치는
배워
별다른
보소
분이
뻔뻔
상투
슈렉
신념
씨발
양동근
어벤
없었으면
에러
이경
잼씀
저기
조조
종영
주옥
죽을때
지배
징징
차분
차이가
초능력
퇴보
할배
환장
흑역사
##인드
##는뎅
##받아
##만하고
##사에서
##리트
##리칸
##장은
##할것
##한가
##한건지
##국이
##수로
##로가
##시도
##조한
##도와
##증을
##요미
##재현
##양의
##op
##있다면
##어주는
##드려요
##치않
##원도
##원작
##판은
##버전
##많고
##올라
##임이
##왜곡
##씩이나
##명은
##명한
##넘게
##쳐도
재밌지
##하는듯
지루하기만
기대는
기대됩니다
별로였음
아깝다는
명작이네요
장면의
무슨말이
##하기까지
매력은
##재미있다
만들어야
캐릭터와
공감가는
잔잔하지만
세상은
어린아이
살아남
무서워서
안되서
관객들
답답해서
상상을
뛰어나
다음으로
굉장한
혼자서
극장판은
성우가
해도해도
잘생긴
시원한
태어난
나은듯
최초의
정확히
##거든요
공중파
절제된
에일리언
99
very
ㅠㅠㅠㅠㅠ
가해
간간히
경제
고딩
곱씹
구라
구역
구분
그땐
그들만의
글구
김남
나니
내리
내겐
닥터
된다는
될수
될듯
매혹
멘붕
명성을
모티브
미리
별1
본건
본적이
심히
심리를
싸울
아아
아끼
알렉
어케
어떡
없군
엉터리
울게
울었던
있나요
잘안
저거
정이
졸려
지진
짐승
찍을
찜찜
토끼
한테
활용
흐뭇
##라지
##서방
##리다가
##을뿐
##국의
##cg
##ce
##해석
##거의
##거라고
##달까
##스도
##비는
##볼수록
##보시길
##어쩌
##그자체
##크의
##판에
##건강
##버리지
##덕분에
##좋아서
##권택
##렸는데
##홀로
##롭다
##삭제
##돈으로
##떨어진
##빼고는
##냅니다
영화자체가
너무재밌어요
재밌기만
##에서나
최고였습니다
평점낮
지루하네
배우분들
작품이라
기대도
액션에
별로인
괜찮아
장면과
아무래도
결말까지
뭔가요
코미디가
개봉을
제목과
아니라서
##수가없다
떨어져
막장으로
아쉬울
아쉬웠지만
중간부터
##아니면
보고싶어요
무서울
행복을
웃음과
허접하다
분위기에
옛날영화
엄마의
주제도
않았을까
##버린다
##것같습니다
##노잼노잼
상황에
등장하는
허무맹랑
##지루하고
예고편이
안타깝고
선택한
몰랐는데
과거의
별루다
자유를
짱짱맨
실패작
사기꾼
불쾌한
의문이
가져다
낚였네
파워레인저
별한개도
##ttp
더더욱
35
갔는데
거대한
검은
괴로
김성
느리고
대가
도통
도입
똥을
마케팅
만나고
맛깔
멤버
물씬
믿음
밀라
바랬
발레
벌어
보셈
볼것
부디
부르는
부럽다
비싼
색감
성경
송지효
순진
쓰지
안웃
엉덩
에릭
용두사
우스
이선
일탈
있으니
잘함
장나라
전락
접근
정화
존잼
지존
징그
짱이
천만
출현
충무
톰크루즈
특징
파이팅
하냐
하던가
한두
헷갈
##살에
##이딴
##서트
##서린
##가자
##하잖아
##할정도로
##을정도로
##실력
##등장
##려니
##도없는
##스라
##보지마라
##함만
##녀가
##였네요
##생이
##편의
##통에
##est
##봣어요
##놈들이
##결혼
##앞에서
##꺼다
##뿐만
##언이
##♡♥
##곳이
##귀신
##앗는데
##율이
##엿다
##챙겨
영화본
영화계의
너무한다
재밌었고
##에서만
##하는건지
내용으로
재미있네
재미있었던
만들려고
이거는
마지막으로
작품중
재밌게봤
주인공도
아까워요
마음속에
유치뽕
볼만했음
##하나로
남자라면
매력있는
스릴이
인간들이
인간적인
스릴러를
정신나간
나왔는데
이유로
무엇이
장난아니
사실이
초반부
이해가안
오늘도
분위기도
만들었네
##주의를
집중도
교훈이
허무하게
이번엔
상영관이
예쁘게
누구도
미안하지만
오글거려서
비추천
즐겁고
게임을
철학적인
##로서는
##모습이
글쎄요
넘어선
스티브
받아들이
영화라는게
대표적인
슬퍼요
##bs에서
한번쯤은
감흥이
어째서
스텝업
best
##남기는데
정당화
차승원
임청하
홍금보
5개
ocn
같네
개소리
걸린
그딴
극한
기념
길다
나가는
나홀로
난생
남발
다리
단언
독창
동심
되도
레즈
마스터
많지만
말이다
맞게
미흡
본인이
뻔하지만
뿐만
속은
슬래셔
신민
쌩뚱맞
예매
오타쿠
웃길
원피스
의학
읽는
임권택
잘살
조정
조심
존내
죽는다
집단
총질
퀴어
풍부
하던데
한개
황홀
##받아서
##삼류
##이형
##성으로
##가라
##하였다
##데로
##을것
##전달
##해본
##거는
##뭔가
##볼수있
##보임
##겠냐
##였구나
##였으나
##론의
##았어
##일으
##희씨
##발이고
##두근
##겨운
##잇고
##프라이즈
##예술
##책임
##ㄱㄱ
##영화네요
진짜진짜
생각에
생각해서
##이라곤
만들기도
쓰레기임
좋아해요
기대되는
지금껏
처음이네요
나오는거
우리나라는
아까웠던
원작소설
실망스러운
조금씩
친구들
시청자를
안되나
관객의
만화는
슬프지만
배경과
##부분도
영화라면
##하시네요
이정도로
화려하고
##말고는
다운로드
이후에
##거같네요
2점준다
존재하는
몇번이나
몇번이고
##재미있음
어쩌라고
그때의
##그런가
편집이
아닌가요
미안해
범죄자
오글거려
전작에
스케일이
가끔씩
러브라인
남주가
시선으로
아침에
인터뷰
초등학교때
말아먹은
김혜수
별반개도
끼워맞
몽환적인
핸드폰
비정상
서스펜
조기종영
끝판왕
크리스토퍼
베트남
##솔직히
http
me
것인지
경계
계획
구멍
김소
나뿐
너는
느슨
대략
뜨거운
마을
마초
메가
몇개
모야
못살
물고
미개
바꾼
백배
버리
보진
부조
생략
샤를
서서
섭외
소리지
속의
수정
심은
쓰렉
안했는데
알겠지만
약한
없다는게
엉엉
왜만들
웃게
웬만한
유오
유부
이재
이념
이범
일요일
있으
있겠지
잘하네
잠수
주원
주상욱
죽기
쥐어
지우
지나서
최대의
큐브
틈이
파트
퍼즐
할지
후덜덜
휴먼
##는디
##아버
##영씨
##가는데
##데터
##지기
##남아
##들리
##ion
##시지
##시죠
##구구
##거니
##정보
##비홍
##자식
##었죠
##어마
##여자가
##드네
##감상
##편인데
##호러
##안의
##되네
##됐는데
##맞은
##중한
##저링
##노출
##날에
##당하고
##평점은
##평점을
##tv
##싱턴
##특유의
##겟네
##ㅗㅗ
##먼저
영화만들
재밌지도
연기까지
평점왜이
감동적으로
아니라는
재미있었고
좋아하지
한국에
한국어
나오기
##적이지만
모르나
이해못
우리들의
장면들
그런영화
아닌것
볼만하네요
현실의
결말에
눈물흘
##재미가
만들어준
뭔가가
코미디도
나온다고
기분만
아쉽고
개인적으론
어이없어서
전쟁을
코믹영화
후회함
애니메이션이
더빙은
##좋아하는데
주제에
##만든다
엉성하다
CG도
인물의
성룡이
알게된
사회에
##수준의
ㅋㅋㅋㅋㅋㅋㅋㅋㅋㅋㅋ
구성은
화면이
프랑스영화
그래픽이
스타일리쉬
나에게는
OST가
어린이용
미소를
모자란
아침드라마
어렸을적
심각한
때문이다
슬퍼서
미스터리
최민수
중학교때
꿈꾸는
사무라이
일베충
황정민
졸업작품
과도한
신세경
so
가관
간직
같지
게리
계기가
고급
김강
꿈이
남기고
노동
되었는데
드리
딱딱
말만
맙시다
모여
몬스터
못보고
못하겠
무관
미키
믿어
받아서
보실
보이지만
보냅니다
복선
봤었다
빠짐
스무
신나게
악플
언급
없었고
여고
여왕
우습
이라
임신
잡는
장르는
잼없
정리
조승우
지적
최하
최후
치는
컨저링
코드가
타락
토요
푸른
하던
현빈
흐르
흔해
##인으로
##는지도
##본게
##나타
##사극
##하단
##데기
##내려
##다코
##천재
##ill
##외로
##누구
##도다
##요즘
##디션
##볼려고
##대전
##보셈
##있다는
##었을때
##오르는
##모가
##작은
##상실
##부턴
##부림
##니스
##호의
##un
##마트
##공부
##봤으면
##왔어요
##일세
##빨고
##2점
##1위
##19
##1점도
##히어로
##플렉
##교육
##글자
##깊게
영화들은
##영화네
재밌당
최고였어요
생각한
배우만
좋아하게
이건아니
마지막의
액션물
액션신
10점줌
10점이다
##에게도
이해하지
괜찮네
마음의
20세기
만들어졌
모든것을
수준은
##0년도
이걸보고
##장면에서
기분좋게
##주인공이
만드는지
부족함
정신차
시작은
훌륭하고
의미는
우리나라에서
언제쯤
역사왜곡
##부분에서
오래전
엄마랑
충격이
충격을
궁금해
중국영화
실화라니
19세
초딩이
##1010
인물이
##수준이
각본이
구성과
케이트
이런영화에
시절의
참신하고
과거를
먹먹하다
ost가
이연희
일어나는
3D로
시간아까움
검색해
어지간
당연한
인디아나
감정이입이
지났지만
단체로
설경구
로보캅
1화
1분
1빠
5점이
re
가상
건데
경우
고찰
군인
그것은
금방
긍정
김현
김대
깊이가
나누
남았다
내러티브
넘은
노력이
논리
눈만
느린
달고
더럽다
데드
둘의
라스
로렌
말에
말해서
말해주는
말하려
매회
몸이
몸에
버전
버릴
버금
보신
볼줄
비틀
산만한
서인
섞어
식으로
썰렁
아가
알지
여주의
예의
옹박
웃어야
은퇴
이완
이작품
잘하
잘표현
장미
장편
죽인다
지들끼리
찢어
찰리
창의
창작
천사
초기
촌스럽
추락
클린
펭귄
한건지
혹성
황비홍
히로
##철학
##간만에
##기준
##라를
##이기에
##이거나
##리타
##지우
##지는데
##수밖에
##소를
##추고
##제는
##비를
##위해서
##보길
##보지마세요
##터짐
##어난
##모르는
##였을
##긴했지만
##문의
##봤다가
##봤더니
##좀비
##올때
##진은
##일라
##씨를
##합시다
##평생
##틈이
##충격
##났던
영화고
영화에서는
최고라는
평점좀
보고있어요
지루했어요
드라마네요
재미없습니다
이건좀
기대할
없는영화
있는듯
있는게
하는건
10점도
연출의
이해하고
기억될
아닌지
소재에
보기드
##지않나
공감을
대단히
대사들이
##스트너
표현해
모습도
모습과
기분좋은
미국이
##이라고는
웃기네
##감독은
모르겠는데
사실적으로
시나리오에
##스토리가
재밌는영화
않았나
여주인공은
빠져드는
세계관
##하하하하
멋있어요
분위기와
해야하나
사라져
나라를
서로를
웃겨요
중반부터
놀라울
돌려줘
##모습을
중간중간에
흥미롭고
깔끔하고
역할을
에이리언
영화보는내내
히어로물
방법이
움직이는
못생긴
##그렇고
담아낸
오로라
가르쳐
이은주
리즈시절
##여운이
나중엔
박평식
각자
과잉
구로
국제
글로
기쁨
김재
꺼내
꼬맹
내눈
뇌가
단점
당하는
돌고
두명
때리고
마주
마르
많네요
말라
발상
변신
별점을
불후의
비난
비롯
빛이
뻔히
사춘
산드라
상식
속도
속아서
수백
신나는
실종
싫은
싶었
싶게
아들과
악몽
안젤
알리
알수없는
연장
옛다
오토
외에는
요약
운동
위에
인한
일제
저리
저렴
조쉬
졸면서
지브리
찾고
채플린
첨에
촌스러운
치열
치명
코엔
파악
피라
한없이
환타지
훈남
##이한
##이긴
##이쁨
##화는
##가도
##하곤
##if
##ch
##미친
##해놓고
##근한
##스피
##보라
##못보
##치네
##트에
##게도
##잘하고
##잘만들
##메오
##놈들은
##많다
##진의
##좋았어요
##ve
##날때
##슬프
##슬퍼
##됬는데
##hat
##흥미
##죽을
##힌다
##틀러
##넣은
##폭력
##영화냐
##에서야
연기파
지루하지만
10개
좋아합니다
이건진짜
작품성이
하나님
##다고생각
처음임
연출에
우리네
재밌게본
##되는영화
현실이다
남자들의
보기는
눈물도
영화다운
인간을
음악에
추천해
어떻게든
##스트우드
보다보다
특히나
안되네요
부분을
##해야할
않았고
후반에
2000년대
멜로영화
나이에
그녀가
만드네요
지금까지도
스타일의
요소를
2시간이
허술하고
잘생기고
심심해서
리뷰를
분노의
소름돋는
이연걸의
##티비에서
새롭게
치밀한
##영환데
적절히
이게뭐야
자본주의
헛웃음만
영구와
어딘가
오리지널
##아직도
전도연
한예슬
신데렐라
##파서블
아이러니
혹성탈출
sh
거창
겁니다
고백
구리다
그레이
김하늘
나간
남긴다
내는
노는
노예
눈부
능력이
덕에
도덕
됐는데
또보고
르네
말하면
매트릭
못만드
무기
무얼
묻혀
뭡니까
미사
별기대
불친
빅뱅
삼가
성유리
속편이
스콧
실컷
안에서
어의
오만
요구
우익
울어
이랬
이들이
잘나가
장쯔
재주
전세계
제법
조인
진작
짱구
찍지
처절한
첨이네
청년
체험
트라
팔아먹
팬이라면
하려는
했을
허전
혹평
환불
후한
후진
휴머니
##기때문에
##나지
##나무
##영웅
##가진
##사나
##하느라
##것다
##다를
##할정도
##할려고
##수한
##등등
##시라
##볼만한
##있었던
##었어도
##과정
##드리고
##겠는가
##했더니
##카이
##그럼
##ain
##마가
##공의
##런지
##망이
##저런
##피는
##피아
##날이
##슬리
##블루
##히게
##츠의
##움과
너무하다
너무좋아
재미없다는
사랑이란
보는듯
시간의
좋아한다면
하나만
하는건지
##적이지도
1점주기도
##이나오
아이들도
괜찮던데
여자들의
주인공과
몰입을
남자들이
보기에도
한번은
##스러워서
수준급
재밋는
재밋어
##나오면
아쉽네
느껴짐
봐야겠다
미국판
훌륭함
따뜻하게
오늘은
영화관에
##부분에
##한거지
##들에게는
후회할
설정에
##하시면
어른들이
ㅋㅋㅋㅋㅋㅋㅋㅋㅋㅋㅋㅋㅋ
에로틱
사이에서
자극하는
대한민국의
##그래픽
메세지는
아마도
사라진
아프고
OOO기영화
##짜증나
##로서의
##ore
다가오는
##아아아
적당하다
인터스텔
신경쓰
어처구니가
신파극
끝날때까지
볼거리도
망쳐놓
인내심
예뻐요
M창있네
충실한
선동영화
웃겼음
자세히
##아까운영화
일깨워주는
이성재
두근두근
##위원회
왠만해선
원숭이
미스테리
불필요한
소피마르소
어마어마
장근석
양조위
1도
98
9점은
갑갑
것처럼
고발
공산
관점
극과
나왓
너네
높이
단조
댄스
데려다
되는거
두개
맞춘
믿는
믿지
볼꺼
부른
붉은
빼앗
서프라이즈
소방
아시아
알맹
오오
오마
울었네요
원빈
은은
읽은
있다는게
제미
조여
존중
즐기는
지지
지들
지어
짧게
쩌네
철저
추잡
추악한
출신
케이지
크로
하려고
허영
호텔
흥해라
##인권
##인척
##우면
##으려는
##아프
##아닐
##가네요
##하려면
##내기
##고은
##역의
##전개도
##야오
##수다
##미니
##려라
##질때
##밖엔
##용이
##볼까
##배속으로
##보일
##어머니
##타클
##연애
##그린
##방의
##감사
##안나
##되길
##마는
##마냥
##워커
##금을
##씨와
##선수
##좋았
##좋겠다
##입고
##유혼
##월드
##프트
##림을
##ht
##높아
##높다
##곳에서
##빼면
##묘하게
##엿음
##듭니다
##곱니다
영화좀
최고라
생각했다
생각해도
아니죠
사랑스런
쓰레기로
보는줄
보는듯한
한국영화가
이게왜
1점짜리
명작이라
재밌게봤음
아이의
아닌거
유치하지만
볼만했는데
이상도
다른거
다른영화
남자와
스릴있고
인간들은
정도다
정도껏
만들어주세요
##보는내내
억지스럽다
억지설정
실망했다
캐릭터에
표현했다
나름의
1편과
영화로서
무서웠다
##최고다
전쟁이
##내용을
코믹한
느낌이랄까
실화라는
그만좀
##기만하고
다음에
비교가
알았더니
당신을
3류영화
기다리고
##지루하다
그녀는
진행이
먹먹한
이러니
아오이
느꼈던
중반부
짜증나네
심심한
실패한
한계가
소녀의
레이싱
작품성은
씁쓸한
대표작
좋아할만한
찌질한
달달한
기회가
다를게
무료로
위험한
냄새가
담담하게
EBS에서
리암니
적나라하게
아메리칸
지하철
구역질
유치뽕짝
1이
2년
3분
my
st
♥♥♥
감당
개독
개떡
건축
결합
경이
고로
고려
고정
공존
그치만
극적인
기차
끄는
나발이고
난국
남편이
넘겨
놈들은
다케
대비
던지는
때론
레드
류의
마츠
만나서
모냐
못했
묘하게
무책임
뭔데
미성
미칠
박지
보자고
비중이
뻔해서
소림
순정
습작
씨네
아야
안든다
알아서
암이
얘기가
에니
여지
열린
영활
옹호
와이프
외로운
유리
일상을
잃고
잘보
저녁
저것도
지대로
진화
진보
짱나
쳐도
최저
치고는
카타
트루
할거
호소
훈련
흔히
##우니
##기라도
##운의
##으다
##음에
##가기
##가치
##사로
##사진
##하이
##할수록
##국주의
##수고
##거리고
##디로
##자막
##무니
##어는
##어보이
##오랜
##겠나
##연한
##트리
##잘봤습니다
##편집
##집에서
##땜시
##멋대로
##중독
##결이
##끝내
##날의
##순위
##맛이
##차원
##끌고
##렸어요
##졌지만
##겁게
##따름
##ld
##겟네요
##돈주고
##쨋든
영화판
영화처럼
##하는가
##하는구나
평점알바
생각하며
지루하지않고
배우로
쓰레기들
좋아한다
이건머
하는것
재밌게봤다
기억도
여자들은
이상을
몰입감이
남자배우
가슴으로
스릴감
##재미잇
솔직하게
전개되는
한번만
하고싶
잔잔하면서
##만들어도
알바들이
정신건강
감동적이었습니다
장난감
1점도아깝다
배경은
예술을
공포영화의
어느새
비교해
어울리
예상치
그때는
있었다니
분위기의
잘만들어진
그래픽은
가볍고
전작의
청춘의
만큼은
철학적
OST도
##보여주는
소름끼친다
오그라들
##티비로
뒤로갈수록
찝찝한
끝날때
해리슨
40대
달콤한
줄리엣
##시청률
깨알같은
이동욱
브래드피
가만히
코스프레
어벤져
클린트
3대
3개
3탄
5번
on
가미
거울
구매
귀가
꺼버렸다
꿈에
납니다
넣은
눈과
당최
대여
대책
더한
데려
돈도
된다고
들려
디아
많았던
맞추기
메인
메리
몇안되는
묵직한
미군
반개
방식
배틀
별이
보나
보임
봤다고
부인
부여
비명
사다코
삽입
서민
서극
서세
선수
소문
스칼
시민
신현준
실존
안티
안가고
애를
어줍
어둠
얼른
에너
욕먹
원맨
이세
자존
잘만
잘해서
잘봤다
저의
적응
정부
진주
짧아서
쫄깃
참혹
창조
처참
캐서린
클라
클라스
편이
한사람
해줄
향해
후기
후유
##간지
##기면
##기업
##이니까
##아오
##아줌마
##화면
##사냥
##하가
##하군요
##남겨
##남는다
##할거
##할게
##소나
##구조
##브라
##도못
##비스
##비교
##자랑
##볼수있는
##대화
##보느니
##og
##여배우
##드러
##매니아
##겠군
##겠더라
##주로
##급의
##더럽게
##세이
##all
##복수
##짜는
##마른
##공이
##걸작
##버려서
##올린
##일때
##피를
##된다는
##존재
##행을
##합니까
##쓴다
##죽고
##몰랐
##3류
##셉션
##났는데
##윌리스
영화죠
##영화나
지루하지도
드라마에서
내용이나
100분
사람으로
좋아지는
작품인데
있는거
아이도
아이들을
##라는건지
##주는게
공포영화를
마음은
무슨내용인지
##가는게
##ㅋㅋㅋㅋㅋㅋㅋㅋㅋ
보기도
OO같은
말이지
영상으로
극장서
실망한
공감되는
대사들
##이라는걸
개인의
스릴러가
아쉬워
그러니
##만큼의
정신을
웃기지
어설픔
##이상은
##이상실
신선하다
수작이
안되요
시나리오는
어색함
어색하다
돌아오
더빙도
주제로
##OOOO
않았으면
##만든영화
후반으로
이름만
알고보니
약간은
없었다면
알게해준
세계를
ㅋㅋㅋㅋㅋㅋㅋㅋㅋㅋㅋㅋ
ㅋㅋㅋㅋㅋㅋㅋㅋㅋㅋㅋㅋㅋㅋㅋㅋㅋㅋㅋㅋㅋㅋㅋㅋㅋ
빨리감
2015년
줄거리도
대작이다
이러한
신기한
신기하다
전문성우
즐겁다
사건을
가득찬
##하던지
취향은
심심할때
와닿는
시원하게
##나올때
##버렸음
외계인이
무언가를
어머니의
시간아까운
불러일으
가면갈수록
영혼을
##ㅠㅠㅠㅠㅠㅠㅠㅠㅠㅠㅠㅠㅠㅠㅠㅠ
떠올리게
작위적인
##신분들은
최초로
볼거리가
봐줄만
목숨을
##이쁘고
프레데터
배급사
못미치는
묻어나는
객관적으로
드니로
심사위원
샤론스톤
엑소시스트
보기드문
휴머니즘
스칼렛
5점은
and
bb
na
가자
가위
각자의
강조
강제
같기도
것만으로도
괴물이
김동
까메오
끝으로
남음
낫지
낮음
넘치고
넣어
당하고
독백
돌이
되새
뒤집어
땀을
뚜렷
마사
말할수
말아라
먼지
몇년이
무미
무능
무덤
버리는
별볼
보호
볼땐
봐요
봤었던
부럽
빠지
사토
사전
세트
수치
승화
신성
아랫
악의
안고
않는데
에어
에반
이슈
일이다
잇는
잘했다
재료
제정신
졸았다
주려고
지니
진솔
최곱니다
파란
플레이
픽사
필모
한물
한다면
허준
활약
흡사
희한
##때메
##기보다
##는걸
##으라고
##이즈
##이더
##이면서
##하라는
##고를
##을꺼
##전혀
##테이크
##수작
##로선
##소니
##에나
##질수
##뭔지
##스페
##디젤
##볼때마다
##무가
##열자
##보잡
##어떤
##랑이
##녀석
##타령
##동네
##작정
##치콕
##주려고
##였다고
##키스
##관련
##생의
##편도
##뭐지
##되면서
##끄고
##았다는
##경의
##바보
##바른
##좋았음
##입견
##유머
##당하는
##권을
##행크
##밀리
##졌는데
##갔으면
##났어요
##영화중에
너무좋다
스토리라인
감동으로
지루해요
##이라지만
##보다니
1000
지금보니
볼만은
볼만하고
현실에서
##재미없고
대단함
##장면을
나온거
잔잔하니
##만들고
막장의
그러면
그러니까
봐야한다
##만큼도
나왔습니다
느끼지
무서웠
신선했다
초반의
##최고최고
시나리오와
포스터는
주연으로
않았습니다
잔인하게
장르에
그리운
보았지만
나이트
평론가들은
불편하다
식상하고
엉망이고
가는줄
힘든데
유머와
행동이
15분
와닿지
일어난
깔끔하게
연기자들의
조잡하고
펑펑울
##이유가
안봤지만
안봤으면
13구역
민망한
생각나네
생각나네요
8점대는
인내심을
죽을뻔
지겨운
1점준거
거부감이
##ent
프레디
##죽는줄
왜이러지
김태희
박신혜
어정쩡한
이나영
페이크다큐
이순신
마누라
드림웍스
강호동
3일
gt
강혜
거대
고수
괜춘
그리스
급전개
꼽을
끝냈
나눠
낯선
낳은
넘버
뉴스
닌자
닮은
당당
당췌
동호
동일
따듯한
똥폼
롯데
마크
만점을
망치는
망쳤다
명예
못지
문근
문학
미달
믿겨
버티
볼수가
부를
비유
빌리
뽑아
삼국
소리를
소년의
수애
스파
스탤
시점
식의
쌍팔
아키
아따
아들의
악평
안봤는데
않았는데
애절한
어서
어딨
없을까
였습니다
오다
왜냐
욕나오는
위하여
유역
전통
정점
조직
졸려서
주면
죽이네
중세
중에서도
질투
짜여진
차지
초등
최종
최진실
취급
태극
틀어주
평은
폴워커
하시는
하기에는
한건
화난다
히치콕
##운이
##이었는데
##본거
##본듯
##은혜
##아침
##가루
##사라
##하든
##하겠지
##하던가
##리온
##지로
##역에
##구석
##해짐
##해준다
##밖에는
##스토
##정서
##자들을
##볼타
##무엇
##대서
##대도
##보비
##터가
##ost
##있어야
##말은
##녀유혼
##드벤
##했어도
##물도
##주에
##주니
##맙시다
##안함
##란이
##단다
##반복
##봤었는데
##멋진
##발연기
##선가
##색이
##맛에
##베리
##차고
##2의
##21
##잼있
##잼잇
##뿐인
##죽여
##갖고
##빠지는
##졌네요
##센트
##쳤던
##촬영
##씬에서
##박이
##5분
##팬더
##홍보
##폭행
##낮지
##껴서
##줬는데
##킬링
영화니까
최고였음
생각하는데
드라마보다
드라마였다
드라마에요
아니었음
아니었으면
액션으로
한국은
나오게
나오면서
나오는지
##적이며
최악입니다
연출한
모르겟다
이해는
보여서
무슨생각으로
몰입하면서
남자들
반전과
##너무낮
수준이다
코미디로
개봉했을때
##는거임
아쉽긴
노래만
출연하는
보면서도
어이없네
무섭다고
우리나라에
행복해
안되는데
사실에
답답함
웃음도
##내용은
엔딩곡
영화관가서
힘들어
스타일이
들어가는
지루하다고
더빙을
##사랑을
중국의
2편을
이름값
따라한
얼굴도
인물들이
각본과
허무하다
상영시간
불편하고
있어보이
##아이돌
만드나
##하지않은
어려울
##영화중에서
나쁜놈
그래픽도
영화인거
환상의
전편에
SF영화
나라의
촬영기법
어찌나
그랬다
##지못한
화가난다
군대에서
결론이
슬픔이
말이필요없는
역할이
미치겠다
소름돋는다
부끄러
부끄럽
흐름을
이때까지
눈빛이
지구를
반성해라
선생님이
니콜키
##이유는
하이킥
다니는
상업영화
잊을수가
조용한
무척이나
못생겼
깨달았다
오랜만이다
익숙한
꼭보시길
집어넣
한순간도
틀림없다
어땠을까
김강우
카타르
원맨쇼
1억
2개
23
3번째
OC
가운데
갑작
같다는
거리가
고3
광해
광팬
괴작
교차
구원
귀요미
기사
기도
꼭봐라
나갈
나한테
네가
니들은
다듬
동정
동방
동료
된게
디지
마마
맛에
매년
매튜
멜깁
모델
못하게
못하지만
못했지만
발휘
보네
복제
볼걸
봤어
분은
불사
불꽃
붙여
빡쳐서
빨아
빼놓
사막
사귀
성괴
시스
신부
써야
써도
아웃
안됐
안됩니다
알면서도
어쩐
어렷
어메이
어이상실
없었지만
여우
열정이
오류
오싹
옴니버스
외엔
욕하면서
우마
운운
입고
자라
잠든
재해석
전무
제한
제레
조커
졸립
좌파
주위
중심
찡한
차인
차가운
채우
책도
철없는
총쏘
콤비
크리
크고
크루즈
터무니
토이
톰행크
파리
패턴
표본
프렌
플래
합리
해적
화해
##인상
##우면서도
##기동
##성있는
##만세
##사기
##하트
##하라고
##지와
##지식
##남편
##장님
##전문
##없으면
##미국
##시티
##짓게
##자신
##래야
##웃긴
##보나
##상으로
##방법
##르다
##ap
##안타
##안나오
##ul
##봣음
##봤자
##린거
##코가
##신고
##일지
##일체
##임파서블
##선물
##바탕
##꼬마
##ㄹㄹ
##갑자기
##엇던
##씬도
##랍시고
##십시오
영화면
영화일뿐
##영화에서
재밌긴
연기나
이런것
감동감동
지루하네요
드라마임
아니겠지
##해서는
사랑하게
좋아하
##보고있어요
작품도
기대해
기대합니다
##이나마
아이리스
그런대로
##것도아니고
보기전
원작보다
##지않을
아름다움을
뭔가를
모두다
캐릭터들의
캐릭터들도
대단합니다
개봉하는
제목도
스릴러는
만드는게
제작된
자체를
미국은
출연료
감정선
무서웠음
모르겠으나
장난해
강추입니다
행복해지는
사실적인
슬프게
킬링타임도
애니메이션을
엄마와
이정도는
##아닌듯
##지루해
감독님이
영화인데도
멋있었다
끝나지
크리스틴
개연성은
0점도
관람불가
##일까요
끝내준다
죽음의
##이런영화
아버지를
희망이
분명하다
느꼈습니다
유머가
현재의
흘러도
나쁘진
분노가
스포일러
섹시한
##소재로
##마음이
##마음에
말할것도
##bbbb
비현실적
조선족
무리수
유아용
시끄러
빵터짐
저급한
박신양
베리굿
능가하는
모니터
눈요기
한정된
사로잡
주옥같은
김남길
용두사미
이선균
여고괴담
정신건강에
별볼일
6살
MC
kbs
love
갈아
건너
고현
공개
과한
관점에서
귀에
김보
껏다
꾸준
나았다
날로
녹화
놈들이
놓친
다같이
달아
동의
되길
두분
드릴
들을
때우기
라면
많지
말지
망함
망쳤
맞은
며칠
명량
모건
몰라서
못볼
못된다
무개념
뭐하러
미워
밥먹
범인은
보네요
복수가
봐주
봣다
부재
불만
선교
선입견
소비
속터
수업
스탈
시덥
싶네
써라
썩은
쏠쏠
씬은
아휴
안전
안달
안난다
안하는데
어드벤
없을듯
여진
연계
욕하는
울나라
육체
윤계
이요
이슬
이길
이만큼
이스트우드
인듯
인연
인줄
인기가
인셉션
일은
일점도
자칫
자기만
작정
작작
잡은
정유
정글
주체
죽어서
줄은
중구
중딩
지도
진하게
짧고
짱입니다
첨본다
쳐다
촌스럽고
칼로
터져
통틀
파멸
필수
하얀
하야오
한수
한결
한쪽
호감
홍진호
희극
히트
##인들은
##인트가
##기스
##라구
##이미
##이웃
##이군
##나잇
##아자
##음의
##가수
##하듯
##점수는
##리브
##리어
##장창
##테니
##국민
##로버
##등록
##표를
##현우
##현이
##해놓은
##도전
##달러
##름이
##스틸
##자마자
##볼때
##어낸
##말에
##매가
##못미
##타이
##작이라
##새벽
##문을
##키의
##되냐
##us
##훈이
##마니
##력과
##신선
##저질
##피니
##겨울
##순례
##됬다
##욕을
##파괴
##예능
##hh
##렸지만
##풀이
##졌고
##밑에
##훨씬
##ㅅㅂ
##영화지만
생각하지
스토리텔
사랑스러
쓰레기라고
완전한
처음입니다
없다면
하는가
##에게서
기억은
이영화에서
일본식
보면볼수록
눈물난다
##스럽지만
음악의
영상을
##재미있고
##지않았다
아름다웠던
##재밌는데
##재밌네요
##다니고
추천함
모두들
모두에게
잔잔함
보다도
##어야할
그러지
봐야함
미국에서
##이란걸
싶은건지
수작입니다
관객은
허접함
들어오
후회하지
있었나
돌아가는
##들과는
##것같고
얼굴을
어쩌고
그녀를
성우를
순간이
안나와서
이리도
천재다
나라가
2시간동안
전달하고자
관계를
사건의
밑에분
##인거같다
정치적
슬픔을
흥미롭다
10년전에
사랑과전쟁
어릴적에
오그라든다
설레는
상상력을
##버렸네
시사회로
할말이없다
무언가가
고통을
로그인하게
봤을땐
잔혹한
고맙다
서부극
앞뒤가
호기심
이준기
잊혀지지가
극단적인
어떨까
한지민
이종석
먹칠을
무의미한
각각의
김명민
지저분
1점준것중에
끊임없이
불면증
단언컨
샤를리즈
naver
OCN
어메이징
3부작
500
mbc
no
ㄱㄱ
ㅁㅊ
가치는
각인
각성
간절
개빡
개실망
거침
걸어
관리
급하게
깜찍
끝났다
나나
낚임
난감
날이
낮추
내스타일
대형
대변
도박
드립
듣보잡
들었음
등이
딱봐도
똑같다
많았다
말하지
맞음
모처럼
무거
무작정
뭐하냐
뭔내용인지
뭣도
발생
방식이
버튼
보시는
볼껄
봤다니
불우
브레이
비긴
사형
살기
수퍼
슈스케
스틸
스마트
시기
신들린
심했다
싸우고
안죽
안목
안들어
안성기
암살
압축
앵글
어깨
어쨋든
언어
엄태
없더라
여주는
역활
역부족
연쇄
온다
와진짜
완소
왔어요
욕할
용가리
운명을
울었음
웬만
유니
윤아
으아
의아
이주
이뤄
이모양
인식
잃지
있죠
있겠다
있었어요
자제
잘라
잘난
잘된
재기
재일
전환
정답
조디
죽어도
중딩때
줘서
줬다
지닌
징그러
짱이에요
채민
천녀유혼
철저히
초콜
최선
키워
택시
터짐
투표
트와
피가
했네
했다는
회사
후에도
흔적이
##간다는
##기보다는
##는건지
##나름
##사상
##지면서
##전히
##각기동
##없구
##없다고
##등을
##시즘
##려도
##도대체
##준이
##거림
##자에게
##포로
##태규
##보라고
##개연
##동일
##동석
##동엽
##뻔함
##했었다
##카메
##부러
##부대
##부르
##감각
##애기
##론이
##란걸
##메다
##맞음
##중인
##중국
##중인데
##린지
##코의
##신지
##바가
##날로그
##맨이
##초딩
##꺼라
##필드
##2가
##1은
##알려
##알게
##느님
##셔요
##엇지만
##놨다
##갔다가
##칠때
##찾기
영화들을
영화이지만
너무좋아요
재미난
평점만
이런쓰레기
생각해요
생각된다
지루합니다
감독아
만들겠다
만들었던
쓰레기도
좋아했는데
지금이
처음봄
한국형
1점주
별로지만
연출로
우리도
이야기와
괜찮았어요
##되는거
그런건
일본애니
볼만하던데
##하나는
##였다니
가슴찡
말이죠
음악만
##재미없는
필요할까
코미디를
코미디의
이걸로
가족끼리
나온다는
영화에선
제목부터
조금이나마
내용도없고
시리즈로
1편도
왜이럼
##할수있
감정의
친구들이
친구들이랑
완벽히
당시의
역사의
진정으로
있었을까
엄마는
##OO노잼
말도안돼
잔인함
##작품이
단순하고
알았지만
자연스럽고
멋지네요
멋있어
살인을
더럽게없다
그림이
줄거리에
무서운거
이리저리
전설이
완성도를
##그래서
##기대하고
요소는
여성의
인상깊은
인상깊다
인상깊었다
와닿는다
용서가
후속편
##하지마세요
시선을
난해하다
##ant
풋풋하고
죽여버리고
##이해가
분들께
이뻐요
생생하다
생생하게
새롭고
거슬린다
초등학생때
다시보고싶은
최민식
기준으로
브루스윌리스
안된다는
하여금
별하나도
못봐주겠다
질질끌고
무식한
암울한
1회부터
멀쩡한
신민아
서서히
이범수
##일라잇
어벤져스
4번
4점대
PD
Very
se
ㅅㅅ
ㅜㅜㅜ
가게
간신
갈릴
강철
강시
개성이
결투
공격
공효진
과감
국뽕
근육
기계
김래
김규
김창
끌려
남이
낮춰
너도
넘기
녀석
놈이
농구
눈뜨고
대리
대학교
도움
되었
때부터
라디오
로긴
마술
말한다
맛을
맥아
몰래
몸부림
무려
무튼
바가
반가
반해
발랄
배슬
본다고
본영화중
볼거리는
분석
빠르게
사나
색감이
선배
설정도
세번째
수호
순위
숨이
스탭
시네
신뢰
싫음
쓰잘
아르
아시는
아날로그
알수가
알수있는
야마
얄팍
어긋
어려서
없구만
없잖아
엑스트라
오르
옥의
와이어
외화
으으
의식
이웃
이룬
이스라
인공
자전
장만
재평가
절라
정은
조재현
종북
좋다는
진자
책이
첫장면
큰일
태양
튀어
포스
피디
필립
하필
하차
함정
해놓고
했었는데
향수
##우치
##받지
##받았
##이이
##본사람
##성공
##내면
##고에
##할영화
##야겠다
##수없다
##로얄
##소장
##현지
##해졌다
##용도
##러리
##무협
##대결
##보려
##매의
##와라
##네용
##급으로
##더의
##침을
##방에
##처리
##ak
##끼고
##애를
##올시다
##쓰는데
##희를
##차라리
##슬프다
##18
##13
##탈리
##햇음
##햇던
##명도
##넘치고
##별루
##몰라도
##눈이
##30분
##겁니까
##7년도
##겟음
##겟지
##슨은
##돈다
##깜짝
##픕니다
재미업
이런데
생각과
감동에
감동까지
보고서
드라마틱
드라마인데
배우다
내용전개가
아니에요
사람인데
재미없는데
좋은거
작품이라고
##다가도
나오길래
##적으로도
명작인데
재밌게봄
기억남
기억하고
괜찮았고
장면에
만든것
##연기와
공포의
일본판
유치하기
남자들은
##드라마로
모든면에서
아름다워
억지웃음
실망을
모두를
배우들만
배우들로
대박이
대박나
대박입니다
계속해서
대단하네요
잔잔하다
보다보면
어디선가
조금이라도
아쉽습니다
그러고
노래와
웃기긴
##할수밖에
감동적이었어요
초반은
재미가없다
인상적이다
후회한다
실화라서
이쁘네
프로젝
로맨스를
CGV
네이버에
이미지가
상황에서
이후의
평가가
보니깐
허무하고
2015
멋있음
판타지를
끝나면
확실하게
흥행을
흥행에
중요한건
누구에게
리얼하게
보여주지
줄거리를
안타까울
안보는데
흥미진진하고
아버지와
바보가
미화하는
바라며
리메이크작
만들었다면
허술하다
cg가
cg도
##걸까요
미래의
예전의
제작진이
##명이서
##기억에
말이필요없음
시선이
무협영화
힐링이
돈아까움
마이너스는
연결이
밋밋하고
떠오르
주말에
21세
안쓰는데
끔찍한
##ㅜㅜㅜㅜㅜㅜㅜㅜ
##인줄알았는데
##이쁘다
저평가된
평소에
늑대인간
기괴한
엽기적인
##분위기
##ight
미션임파서블
스펙타클
##로맨스
식스센스
임수정
충무로
버금가는
사춘기
차인표
중구난
스토리텔링
트와일라잇
##OO노잼OO노잼
이스라엘
2회
7점은
av
간접
감싸
강예
개쩌
걸레
것들은
경기
고래
골든
곳이
곳에서
공각기동
광기
그이하
극의
근본
끊어
나가고
남주인공
노인
놀람
높네요
눈높
다문화
독재
되냐
된다면
두뇌
들었습니다
똥칠
롱테이크
리플
마땅
만원
맞고
먹을
멋집니다
몇일
못난
무방
무뇌
뭐든
뭘말
미루
미쳤다
밀어
바뀐
박용
박상
발암
발톱
밝은
밝고
벌어지는
본적
봉준호
봉태규
봤으니
비가
빈디젤
뻔함
사나이
생겨서
선전
성숙
수다
스톤
슬로우
시바
신앙
쓰레
씬이
아일
안질
양반
없었습니다
없으며
여실히
연령
오덕
왜들
왜저
왜그러
원망
윌스
유전
유대
의존
이와
이명
인피니
일드
일방
있기에
자는
자빠
작살
잘한
잠만
재회
전성
좌절
죄책
죽었다
줄줄
줄거리는
중고
지리
지원
지속
집안
차원이
청순
추상
타잔
토미
패스
팬인데
한때
한회
했다고
했어야
했다면
헐크
호평
홀로
홍수
획을
##인것같다
##때의
##운동
##라는데
##이구
##나쁜
##나왓
##같지만
##가나
##고요
##남자의
##다보니
##을수가
##야야
##야의
##없냐
##들인
##미남
##적일
##면도
##해여
##ㅋ1
##제왕
##디에
##웃겼
##웃기고
##보았다
##보이고
##과도
##개로
##매우
##타닉
##연습
##분들도
##즈를
##와요
##했었던
##부모
##부탁
##관리
##르의
##생겼
##니잼
##되었
##um
##반도
##봤어
##봤는지
##걸고
##력은
##탄탄
##왔지만
##진씨
##경은
##피의
##선징
##vs
##흐흐
##ㅜㅠ
##차게
##블랙
##ㄹㄱ
##햇지만
##느와르
##눈물이
##써서
##30
##78
##렬한
##책을
##뒤로
##돈이
##먼이
##퀄리티
영화보면
영화평점
너무재밌게
정말재밌게
재밌지만
재밌었어
연기들
연기들도
보고있
배우고
배우에
10여
감독이나
만들었는데
보는사람
좋아함
##보고있는데
작품들
액션씬이
좋았네요
있는것도
하나를
한국인이
1점줌
재밌게봤습니다
괜찮을
##정도다
##리는게
마음도
남자친구
매력도
애니로
##는다면
극장개봉
필요는
억지스럽
수준도
추천해주고
공감은
흥미가
잼있는데
나오는게
스릴러의
아쉬웠다
훌륭했다
나도모르게
어린애
영화로써
나와라
남는영화
도대체가
모르겠어요
수작임
친구를
안되게
전쟁에
어색해서
배경을
##스토리는
더빙판
몰입도는
집중하게
##감동적인
##감동적이
하지말고
196
얼굴에
##이야기를
티비에
2000년
평가할
ㅋㅋㅋㅋㅋㅋㅋㅋㅋㅋㅋㅋㅋㅋ
소설의
허무함
##아닌가요
##액션이
멋있게
TV로
끝나네
확실한
##중간에
리얼한
돋보임
댓글알바
끝내주
끝내주는
##시리즈는
##시리즈중
3점준다
이러면
연출력도
조연들
##줄알고
만큼의
어렵게
잘생김
메시지는
안맞고
다가오
다가온다
하루종일
자막이
해피엔딩이
스케일도
##소재를
의심스럽다
섬세하고
시시한
있어야지
##가족이
타이타닉
##요소가
수고하셨습니다
성격이
기회를
안쓰러
다루는
아버지는
로드무비
스피드
난무하는
##채널에서
아이디어가
오유에서
##♡♥♡♥
ocn에서
토요명화
니콜키드먼
엄태웅
##선징악
2번째
3편이
5살
5년
6점이
88
No
but
ever
lt
감우
고은
고딩때
공식
구할
구려
구하기
구석이
균형
근친
기막
김상
꽃보다
나지
나두
남김
내리는
높냐
대다
대하여
덕후
동심을
뒷통수
디비
딴짓
또한번
또다시
마저
마동석
망한영화
먹은
메릴
몰려
못된
무삭제
뭐이런
뭔내용
배두
버림
베니
보내는
본사람
봤어야
비오는
빠르고
뽀로로
사서
사정
산다
살릴
살렸
색다
생겨
생뚱맞
서사
성냥
셜록
소오
속상
송중
수단
수학
수밖에
씹노잼
아시
아들을
안드로
압박
애썼
앤딩
약하고
약빨고
양산
오죽
올만에
왕따
욕설
욕하고
욕나옴
용기를
우베
웅장
유해진
이시
이모
이문
이입
이틀
있을듯
장치
적어
점을
제주
조아요
존1
종종
좋으
짠한
참내
참다
초점을
최수
최대한
최후의
최선을
치곤
쿠엔
통한
통찰
특집
팬티
퍼펙트
평정
폴리스
피어
하시길
학원
한표
합시다
해학
호프
휴지
흠뻑
##우우
##기리
##는것
##토가
##본건데
##만원
##사부
##지길
##야만
##들인가
##한건가
##실한
##소사
##구로
##해지네요
##울고
##스티
##자연
##포장
##너스
##대표
##대작
##루니
##어져
##트와
##했구나
##물고
##급이
##문이
##호는
##ast
##되어서
##되어야
##번도
##레쉬
##마의
##았다고
##걸이
##력도
##결말이
##금지
##놔서
##신듯
##노키
##입장
##된다고
##속이
##차가
##슬픈
##1때
##행이
##회의
##평론가
##죽이는
##빠이
##척하는
##56
##헤헤
##페이지
##릅니다
영화음악
재밌냐
평점테러
생각밖에
스토리전개가
##이라는거
사람으로서
##다는건지
시간여행
좋아라
이건아니다
작품으로
기대보다
기대하면서
최고의드라마
좋았어
있는영화
나오길
나오지만
기억하는
기억속에
여자도
여자와
##연기잘
반전영화
반전까지
한번에
실망시키지
개봉작
표현을
잼있고
잼있었음
자체로
##아니야
왜이런
시작한
따뜻하다
신선함
무섭지도않고
우리나라가
행복했습니다
부분에
이딴영화
예술가
만들었네요
캐스팅에
몰입도를
충격과
말도안되
뛰어나다
이름으로
나올수
비슷하게
영상미에
로맨스도
노잼이다
사회를
어울린다
화면도
물론이고
감성적인
##하지않는
돋보였던
엉망인
몰랐던
먹먹해지는
진실은
목소리도
천재적인
노출이
우울하고
예고편에
어찌보면
남아돌
##만으로는
내생의
일상의
11점을
형편없다
##마음을
18세
일반인
돈아까운
##나왔으면
섬세하게
##하셨어요
생생한
##만드네
최강의
떠오른다
고마워요
야동을
스크린으로
모를까
신비로운
내면의
보여줬다
인상적이었다
화끈하게
장애인
위로가
140
##극장판
##선생님
기존의
무난한
어떨지
피터팬
나중에는
어리석
##질않나
판타스틱
납득이
본질을
지독한
로멘틱
클라이막
매미OO있네
##아버지가
안젤리나
피라냐
무미건
쌍팔년도
시스템
장만옥
1박
vs
ㄴㄴ
ㅇㅇㅇ
가는데
가네요
가나다
갔다가
개명작
개졸작
경쟁
고만
고고
교도
권선징악
그후
금성
금지
김주
김유
끼어
남지
남한
내평점
넣어서
놀랄
높음
눈감
당할순
동원
동참
되는지
될것
될까
둘러
들었는데
딸을
딸의
때까지
리브
맛있는
맥라이언
맥어보이
명성
무심
무릎
뭐죠
박영
박한
발악
방어
배운
법칙
벗고
베를
별을
보장
보였다
보이네요
봤으나
비비
비급
삼각
새드
서우
선율
설렘
성질
수식
수술
스폰
심장을
쓴다
안성
안해
않다는
알라
야이
어필
언더
없구
에스
에혀
여동생
여고생
역을
완결
완존
용의
울었
원초
이질
자격
잠이나
장점
잼따
저만
저건
전파
전하고자
점도
존스
죄를
주의
진리다
초라
캡틴
타짜
터질
팬이라서
평작
폭파
한달
할듯
합쳐
해줘서
했어
흔하디
##으므로
##이어서
##이었습니다
##나를
##아들이
##만나
##사무
##남이
##역으로
##전기
##한것도
##실에서
##ir
##미달
##미와
##조의
##누군
##질을
##스탈
##릴라
##러지
##비한
##자이
##위로
##대신
##대사가
##보냐
##오버
##모니
##즈는
##카시
##방을
##르르
##생크
##니발
##df
##론데
##ust
##uck
##봣습니다
##맞아
##맞추
##걸린
##린데
##버렷
##완벽
##런스
##일도
##일수도
##않는
##바다
##유천
##필름
##2는
##길이
##14
##찍은
##져도
##예고
##회부터
##설명
##씬을
##쪽으로
##겁고
##따윈
##환이
##퍼스
##졸라
##ㅅㅇ
##앤딩
너무하네요
재밌겠다
최고지
생각안
생각지도
재미있던데
재미없었던
사랑입니다
다시보
좋아하면
작품성을
기대하게
##다고해서
##없는게
나오나
나오니
그래두
이야기들
괜찮지만
##라는거
마음속
일본영화의
##배우를
##하나의
다른사람
##하기에는
가슴따뜻
매력적이고
영상물
##재미도
##재미있는
만들어내는
##보는거
재밋네
대단해
개봉하지
##장면만
내용이지만
어디에도
잼있었다
기분이다
개인적
정신없이
웃기려고
훌륭합니다
출연자
전쟁은
추억돋
엔딩까지
역사는
예술이다
만들었지
애니메이션은
돌아가고
엄마한테
##감동을
잔인하지도
여주인공도
빠져든다
##것같아서
얼굴은
네이버는
네이버에서
##이야기가
알았습니다
이것만
다르겠지만
##하자마자
##시대를
안타깝지만
개연성없는
감성에
돋보인
먹먹하고
죽음이
이러지
알려주
전편을
노력은
노력한
성장영화
##다시봐도
알겠으나
속편은
##아아아아
남녀의
발전이
##버리네
새롭다
이정현
타이밍
이럴수가
깨달음
이민기
이민정
보여줬는데
상관없이
어이없게
디테일한
재능이
근래에
하여간
하여튼
애매한
개성있는
지겹고
여자친구랑
최소한의
기타노
개나소나
아담샌
애틋한
기분나쁜
볼까말까
숨막히는
손꼽히는
나비효과
어중간한
친일파
엉덩이
흔해빠진
어쩐지
간신히
중구난방
1은
1번
27
7번
AV
ㅅㄱ
강우
강하다
개짜증
거리
건드
건진
건담
과하게
구리고
그중
그룹
근거
근대
급급
기어
기원
꺼버림
나았
나같은
낚이
날카
내보내
너의
농락
누워
누굴
눈은
다는
대세
도가니
돋는
돋는다
돌리도
되니
되다니
두렵
떠난
마련
말길
말대로
맙소사
망했는지
맞지만
명곡
모래
무성
무신
문화를
미련
박하
박힌
반항
벅찬
베르
베끼
베낀
보물
본드
본후
빠졌
사연
사례
상당
서태
성지
속지
손을
손오
쇼킹
쇼생크
스며
스탠
슬플
신동엽
실력이
싫어서
심하네
쌍욕
썩어
씨리즈
아리
안내
안정
안경
에디
연구
오리
워킹
위선
윤제
은행
이들의
이전에
이감독
잃었다
있을때
작년
잡을
장기
장백
재벌
저딴
적합
절절
조악한
존나게
종결
좋으면
주는데
지네
지못미
질주
짧지만
찍어도
찍어라
찾게
추적
치우
치닫
테스트
투성이
프랭
피로
한몫
할것
해군
헛소리
호화
호강
효민
훼손
휴가
힘듬
##인한
##토벤
##이기도
##본다면
##데리고
##리던
##고만
##지라
##역이
##을려고
##없었던
##등이
##미로
##미래
##미녀
##미안
##시노
##면에
##해질
##해줘서
##브로
##근래
##밖의
##디스
##정신이
##비의
##비판
##자다
##포스
##무어
##있었
##개인
##어른
##어설
##어쩔
##여기
##분동안
##치도록
##했냐
##했을텐데
##그려
##잤다
##군데
##물어
##였는지
##관에
##독립
##ab
##레드
##봤나
##봤을때
##망작
##저는
##산이
##바뀌
##입은
##잔아
##잔데
##순수
##클럽
##랜든
##차기
##프가
##락이
##느꼈
##설정이
##빠지고
##씬만
##겁다
##겟어요
##났습니다
##커스
##먼의
##총사
##XX
##검색
##읍니다
영화보다는
##영화관에서
너무재미있
재밌구만
최고작
이런드라마
생각남
생각하니
보고또
지루했던
사랑이라는
좋은영화다
##보고나서
이거보면
봤는데요
##지는게
있는것
최악이었다
별로네
연출이나
이야기로
괜찮아요
##리는거
유치하게
유치하긴
볼만한영화
##하기만한
눈물샘
눈물나는
##재미는
전개를
한번보고
이제껏
억지스러움
실망입니다
추천해요
연기력을
배우들과
표현된
잼있어
##봤는데도
아름다운영화
제작한
그러다
미국에
나왔는지
##만한데
영화로는
나와는
장난이
괜찮은영화
사실은
분위기만
지루함과
##부분만
##한거임
##아깝네
유쾌하다
코믹물
주연이
있었을텐데
엄마를
충격적
보지말고
##들과의
않았을
잔인하기만
순수함을
엉성함
실화라고
감사드립니다
2004년
2005년
2003년
잘봤음
##어가고
존재가
어울릴
2013
누구냐
즐거웠다
생각해보면
살인자
시절이
안나올
바람에
내인생최고의
완성도는
되어버린
신기할
노출도
전기세
우울할때
관계가
행동을
그려진
러브라
저예산으로
하루하루
해주길래
미치지
아침부터
부끄럽다
비극적인
등장인물들이
그렇다치고
해피엔딩으로
동생이
##시킨다
무시하고
외모가
인도영화
주변에
찌질이
##작가님
투자한
##하진않
##왜이리
하늘을
##로써는
##바이벌
어쩔수없이
##zzzz
주지훈
떨어지지만
왔다갔다
모니카
블루레이
##최악의영화
앞서간
놀래키
##영화제에서
유치원생
아팠다
##리의리의리의리의
오페라
관대하다
지상파
정재영
미개한
파트너
인터스텔라
미성년
토이스토리
채민서
초콜릿
김래원
아담샌들러
3명
ebs에서
ne
가물
강박
거임
거친
건달
걸릴
견디
고루
고집
고향
곳에
관광
구림
극을
금치
금요일
깨어
꼽는
꼽히는
끝장
낄낄
남들
남상
낮을
넘친다
노다
느꼇
늘어지는
다죽
대구
대륙
들은
듯하다
따른
떠나는
리부
마시
마시고
말까
말하려고
말장난
머니
멋졌다
면도
명절
목소리는
못되는
못하나
못알아
무어
무리가
물질
뭐하자
뭐이리
믿을수
바꿀
백만
밴드
버스
법한
베일
베토벤
변함
변명
별점은
보인
보편
보시고
보느라
부성애
불교
브라이언
사냥
산타
색감도
서른
성폭행
세대
소나
소수
소련
수영
시킨
심어
싶다는
싶을때
약을
약해
였어요
오줌
오디션
옷을
욕나오
욕심이
우수
웨스턴
유년
윤재
잃어
입은
자료
자식을
잘모르
잼없어
전범
제공
제2의
지내
지능
지식
지들이
진수를
쩔고
찌푸
찍었다
찍었을까
찾은
찾았다
초호
최신
추석
침몰
코스트너
콘서트
파헤
하니까
해운
해보
해보고
했고
했지
행운
향수를
형태
형식
휴잭
흐른다
히스
히틀러
##우월
##우면서
##받아야
##이영화는
##이구만
##은이
##류가
##가득
##가보다
##하려다
##리라
##남는영화
##다이
##년들
##천만
##천국
##시장
##시윤
##질러
##준영화
##달리는
##요일이
##제국
##포트
##대요
##터지는
##민을
##있다고
##개판
##오로
##여름
##모루
##싶네요
##겠구나
##분들의
##그레이드
##네유
##주를
##긴데
##상식
##원래
##키가
##감으로
##돼지
##크는
##란게
##복이
##놈들아
##봤을까
##취급
##코드가
##많아
##많은데
##람이
##망한
##신다
##저예산
##4점
##일지도
##흐름
##끝도
##끝날
##10년
##블록
##찍는
##회를
##밤에
##백한
##9점
##넘어
##빠지게
##몰라
##엉성
##괴물
##축구
##멸의
##펑펑
##탐정
##굳굳
영화까지
감동이네요
지루하기도
##이라이트
드라마중에
재미없으면
보는건
없는지
한국드라마
그래요
우리를
명작중
느낌으로
아이는
많이들
##되는게
##정도면
##주는거
일본에
##ㅋㅋㅋㅋㅋㅋㅋㅋㅋㅋㅋ
눈물나게
매력있고
스릴은
##재미없네
아직은
긴장을
대박임
대단하다고
개봉할
잔잔히
제목처럼
요즘엔
##생각해
##하네여
스릴러도
않은가
정신세계
1편에서
나왔을
느끼는게
감동적이예요
행복은
추억에
##한거야
포스터보고
오래오래
##보니깐
충격적이다
##주의에
##주의자
주제곡
어느것
궁금하게
상상도
이름에
따라서
이정도의
##쓰레기다
##이었다는
##이었다면
B급도
##으니깐
발연기가
느낄수있
느낄수있는
##재밋고
##필요가
존재한다
##분들께
기다리는
있을까요
어쩌구
2012년
##액션영화
처음부터끝까지
크리스마
화면은
좋은영화입니다
시절을
아쉬운건
과거에
흥미진진하게
진실이
바보로
환상을
스타일은
사라지고
연출력과
경찰이
무엇보다도
조연들의
어렵고
피해자가
성공한
않았다면
짜증나네요
철학이
프로그램이
아저씨가
조폭영화
기본적인
소녀시대
몸매는
악역이
##티비티
보이는데
##나이에
아픔이
기대안하고봤는데
바꿔라
달달하고
할머니가
김수로
여태껏
DVD로
여름에
열받아서
무한한
부실한
유아인
##인줄알고
안가네요
임팩트가
두려움
애국심
편안하게
외로움
이수근
흡입력이
평점조절위원회
한방에
다시보기로
그림체도
신은경
건질게
머릿속에
되돌아보게
##아름다운
보석같은
엉뚱한
역겹고
가난한
박해일
나홀로집에
서스펜스
유오성
잠수함
서인국
에니메이션
자존심
강혜정
꾸준히
쿠엔틴
0개는
1보다
3박
50분
7년
90년
9점이
am
bl
bor
go
sm
ㅈㄹ
가지게
개가
개도
개쩔
개쩐다
것으로
곳곳에
곽지
교수
그레
긴급
깔깔
꼬라지
꾸밈
나았습니다
나혼자
내놔
네임
놀이
놀라고
높고
놓칠
뇌리에
니미
님들
다코
다좋은데
대립
대기업
되버린
두서
뒤통수
드릅
들었
또보고싶다
똥싸
리더
마피아
만만
망상
매니
멈출
몇년전에
모여서
목적이
못하
묘사가
무표정
미치게
미묘한
박철
박스
박민
박유천
밖에는
반짝
배제
병원
보수
보라는
본다는
봤어도
봤더만
브금
빌어
뿐이고
사골
사소한
살해
샌들러
생김
서영
서유
소외
숀펜
수습
스테
스캔
시키는
싱크로
싶었음
싶어지는
쒸레기
아부
아는데
안의
안남기는데
않냐
얘네
얻은
여인의
열연이
오열
오드리
요란
우월
우정이
운전
울림이
웬지
유우
은희
이것을
인연이
있다가
잉여
자부
작업
잠안
장인
재연
접한
정경
조성
조롱
좋구
좌빨
주장
주진
주다니
주고싶은
죽어나
중견
지껄
짜고
최지우
충족
치면
타워
탈락
탐욕
투박
트렌
파일
포스가
하기도
한듯
할일
해병
했네요
현장
획기
후려
흘릴
히스레
##인형
##인들에게
##으라면
##으려나
##이없다
##본영화중
##아픈
##만함
##만해도
##가치가
##하더군요
##데스
##지경
##장군
##할게요
##전과
##없다는
##없었음
##한심
##외엔
##소서
##시걸
##시킴
##해낸
##에여
##누가
##거고
##러브
##정씨
##의사
##비도
##포드
##허허
##os
##있었지만
##개뿔
##오의
##여러
##모토
##드니
##작가가
##했더라면
##그림
##게만드는
##게리온
##편에
##집중
##크를
##안이
##습니
##론을
##레터
##마라
##셨나
##막극
##중요
##중심
##코비
##산다
##진지
##피가
##노는
##바꿔
##클리
##슬링
##2를
##2편
##8점
##블리
##잇다
##광수
##회까지
##3점
##짝퉁
##콜세
##확인
##폭탄
##헌터
##xx
##영화이다
연기들이
최고예요
##라마바
생각날
생각나고
스토리라
스토리며
##이라는데
아니더라도
재미없던데
사랑할
좋은듯
좋은작품
마지막에는
기대됨
기대하며
하나다
처음보는
한국이
한국식
이게무슨
하는구나
아깝게
명작으로
명작이지
명작중의
##있는지
##있는게
느낌과
주인공인
주인공으로
아까웠
현실성도
결말만
##ㅋㅋㅋㅋㅋㅋㅋㅋㅋㅋ
짜증날
짜증났음
눈물날
20여
원작인
인간에
##스럽네
음악까지
필요없고
수준낮은
##재밌는
##재밌었다
하고자
실망스러
요즘에
시리즈물
자체의
이유도
어이없어
친구의
친구와
##밖에안
관객들에게
##해야만
##해야하나
##지가않
봤던건데
##들에게도
코믹도
포스터를
후회된다
오래도록
돌아온
##좋아해서
궁금하네요
##감동이
재밌음ㅋㅋ
따라가
이쁘네요
##ㄷㄷㄷ
비교도
비디오용
감동이에요
시즌4
알았네요
상황과
##말이필요
사회가
별점테러
##거같아서
보았네요
##보고싶은
좀비물
질질끄
2010년
평론가들이
볼수없는
TV판
흥행이
즐거워
생각해볼
사이에
자극적이고
##시리즈를
##이런거
##사회의
이러냐
바보같은
바람피
있다는걸
유머도
보고나서도
뜬금포
##아먹는
15년
누군가가
만큼이나
외국영화
메시지도
안나오나
##일뿐이다
흥미롭지
산만하다
정서에
조잡하다
##무서워
표정연기
씁쓸하다
할말없다
이루는
##나와라
대부분의
바뀌고
발견한
극치를
가슴아프
이용해
##영환줄
기발하고
##그렇지
이해안감
##ome
설득력이
싶을정도로
제외하면
##아쉽다
기대했건만
1인칭
고등학교때
편안한
압도적인
사이코패스
왜이러냐
불가능한
암걸리는
담백한
다녀온
데스노
쓸쓸한
긴박감
올레티비
안무섭다
저지른
유승준
쿵푸팬더
##☆★☆★☆★☆★
가깝다
이자벨
##마무리
노무현
안나왔으면
오토바이
에반게리온
1점준거중
제레미
합리화
윤계상
이슬람
불우이웃
##ㅋ1ㅋ1
베를린
노다메
초호화
2도
3년
4점이
Bad
ch
do
ㅆㄹㄱ
개운
거시기
것일까
겪는
계시
계단
고쳐
고스트
그보다
그사람
기반
기절
김정은
꽝이다
꾸역
끌지
나른
나까지
나라는
남아도
남깁니다
낫네
낯설
눈도
늙어
단어가
당한
대처
동급
두가지
뒤돌아
등에
따지
뜻이
류덕
리스트
막무가
먹어
멸망
모지
몰고
무모
바램
보낼
보지만
보내고
봤는대
부패
불멸의
브리
빌려서
빠지고
빨려
뻔뻔한
뻔하디
사장
사는게
살지
살자
살았
샤말
섞여
세븐
소박
속시원
수목
스러운
슴가
싼티
아트
안재
안듬
안믿
안주는데
않길
알면
애는
앨리스
야쿠
억압
얼어
에단
여군
여긴
영호
오정
와나
웃다
유도
유작
윤시윤
으악
이글
이지만
일기
입을
장선
장담
재판
저능
저번
저격
전두
정지
조미
조명
좌좀
주구
주식
주었다
중심으로
줘야지
지연
지날
지나고
질이
짝사랑
짠하고
짱인듯
차기
책은
처벌
청소
촌스럽지
최우
춤을
춤추는
치부
침략
쿠바
크라
탈을
탕웨이
파치노
페이스
편히
폰부
피노키
하더니
해소
해설
홍경
황제
황진
후후
후레쉬
##인건가
##기전
##기분이
##이서
##이구나
##든데
##아웃
##같지
##같애
##같았다
##내라
##내놔
##리얼
##남주
##남네요
##것인지
##을정도
##각본
##없던
##테스크
##로이
##로봇
##미아
##잡이
##려구
##구여
##조각
##해피
##에이
##울이
##거를
##불륜
##스랑
##정아
##의식이
##비하
##비로
##비언
##자니
##놓는
##재가
##무라
##양반
##보가
##보지말
##루요
##ra
##어렵
##녀는
##못한다
##령이
##연은
##치면서
##했기에
##먹어
##종의
##더구만
##문학
##상관
##부부
##잘안
##안보고
##애씨
##짜고
##갈수
##마를
##마을
##마에
##됐지만
##걸음
##많네
##신과
##노무
##좋앗
##좋았고
##v에서
##된거
##끝에
##빨로
##꺼임
##슬픔
##길을
##밀한
##찍고
##값이
##쯤은
##파는
##햇어요
##느낀
##렸어
##삶을
##죽음
##티네
##설마
##th
##닥터
##엉망
##빈이
##쁘다
##익은
##왕짱
##박스
##갔음
##쩌네
##몇번
##십니까
##릿한
##났고
##슴다
##떄문에
##D로
##줬던
##껀데
##EC
##칙한
영화ㅋㅋ
영화에는
영화보단
너무했다
재미까지
재미더럽게
##에서부터
이런류
스토리만
##들이여
##까지가
지루했고
다시보면
좋아하던
마지막을
하나경
나오냐
나오지도
##적이었다
최악은
1점이다
##인데요
별로던데
별로였던
우리집
이영화로
이영화도
공포감
일본영화가
현실감이
다른게
말이야
애니의
원작도
##스럽습니다
음악영화
##시간을
이제그만
여운과
가족은
가족들
가족드라마
표현하는
조금더
##생각하고
##생각하게
느껴져서
느껴지네요
부족했다
##아니지만
아까운데
이유없이
살아있다
우리나라도
시청율
시청자가
영화였네요
안되지
만화로
완벽했다
다큐로
이딴영화가
##부분을
##한거다
들어가서
못한게
있었지
있었으나
찾아가는
미친거
불쌍함
##ㅠㅠㅠㅠㅠ
이름도
얼굴만
전체관람
인물을
알게되
교훈적인
소설이
자연의
나이를
예상되는
##스타일이
2013년
100배
케이스
불편함
누구를
있었다면
만드는데
댓글이
편집도
순간순간
##봐야겠다
진지하고
결혼식
결혼하고
안나와
후반부는
웃긴데
그럴듯한
복수는
저질영화
##방송에서
성장기
놀라움
풀어가는
나에게도
잘만든영화
잘생겼다
##지도않은
##보여주
스트레
그걸로
포장한
현대판
놀랍고
압권이다
나타내
그립네요
포기한
악당이
##반전이
드러나는
시각으로
발전을
시걸의
반복되는
뭉클한
고마워
영혼이
시간가는줄모르고
내면을
양심도
류승룡
상관없는
다시보고싶다
답이없다
언니가
거부감
낚였어
안가네
적절하게
두려워
새로울
담겨져
따분한
dvd로
밀려오는
시간때우
암걸릴
제시카알바
녹아있는
파격적인
안무서움
매끄럽지
안좋아하는데
애잔한
this
하지마루요
안무섭고
월드컵
소소하게
심리묘사가
돈아깝고
서정적인
브로디
내취향은
유익한
위안부
기대안했는데
##예쁘고
따스한
쥬라기공
풍부한
소방관
##오랜만에
쓰잘데기
프로젝트
안드로메다
1기
2명
26
7살
SM
not
or
sbs
up
가다
강남
갱스터
검사
것의
것입니다
결제
경쾌한
곁에
고난
골라
관능
구나
구입
구석
굿바이
귀한
그정도
극대화
길들여
김두
김옥
깊다
끌리는
남습니다
남들이
낫다고
늦은
대만
도로
돋았다
되요
되겠다
되었지만
드리고
디젤
디자인
딸과
때로는
뗄수
리차
리들리
마니아
많이나
말곤
맞을
멍때
모아서
몸짓
못해도
못봤다
무자
문채
물리
민간
바둑
박현지
반의
백미
벌레
보냐
보아야
분신
불끄고
블레이드
비포
비둘
비됴
비춰
빠지지
상쾌
색다르
서글
성동일
세이
세기의
속아
손이
솔찍
송윤
슬슬
시놉
시점에서
시어머니
심금을
싶고
쌍벽
쓰면
안줄
안하는
안만들
안봤다
안소니
않겠다
양키
얻을
없으면서
여정
열정을
오른
외에
욕나올
우웩
울음
울버린
웃어
유인
유산
유희
유튜
이가
이국
이빨
이뿌
이어서
이들을
이기는
인위
인과
입가에
있도록
자매
작렬
잠재
잡지
장화
장황
장예
재활
잭슨
저에게
전의
정성
정체가
제인
제라
제맛
조건
조화가
존쿠
주네
주저
주는거
주셔서
진출
질러
짙은
총으로
친절
클럽
킹왕짱
타인의
토르
톡톡
톱스타
투입
팬이지만
평가는
포스트
하실
하우스
하이라이트
학예
한게
한채
향기
허각
화나는
활동
##인기
##기들
##기네
##으시
##으려다
##이시
##이러
##본적
##본적이
##나는데
##나보네
##아역
##화로
##점점
##리리
##지던
##지노
##것들은
##것만으로도
##각을
##들었다
##들때문에
##로게
##조가
##조합
##도현
##울수
##거북
##거같은
##거린다
##증에
##용석
##릴수
##디다
##비행
##자신을
##너의
##웃고
##위의
##위에서
##배를
##ry
##꾸역
##었을듯
##개월
##될까
##모도
##드레
##못할
##겠습니까
##뻔하고
##트랙
##했을듯
##네스
##더블
##부르는
##잘봤어요
##세용
##세대
##찮은
##호강
##gm
##ge
##안을
##짜리는
##마누
##셨다
##셨어요
##단말
##봤고
##워라
##워야
##금이
##많아서
##탄생
##저렇게
##산으로
##일어
##일드
##발랄
##노쉬
##바에
##바꾸
##된듯
##된영화
##계에
##강의
##쇼스키
##차이가
##길바
##1개
##락을
##파리
##평이
##티스트
##설레
##별점
##엇으면
##눈빛
##GM
##짝짝
##폰으로
##범이
##폭발
##줬음
##쉽게
##앤더
정말최고
재밌으면
평점과
평점높
평점으로
생각됩니다
스토리까지
감동먹
지루하긴
드라마지만
내용이라
내용없는
10년도
만들까
만들었음
재미없었어요
사랑함
쓰레기통에
이거밖에
없는것
없는거
있는건지
하나만으로도
처음이었다
한국을
아깝다고
우리와
##이나네요
##있는듯
괜찮았지만
여자애가
그런걸
공포와
일본어
볼만했던
##배우도
##사람만
##사람들의
현실적
남자랑
매력과
만들어놓고
##보는중
##나오지
가족들과
대단하고
대사에
나온게
표현은
제목으로
기분을
##생각나서
나오는건
떨어지네요
느껴진
시리즈중에
중간까지
제작자
웃기기도
##거리며
살아갈
감정에
감정표현
영화로만
모르겠습니다
친구한테
주는건
관객들이
답답하게
엔딩도
다큐가
제발좀
졸작이
##스토리를
아름답네요
없이도
돌아간
설정을
##라이브
##사랑해요
중국이
순수함
순수하게
빠져들어
실화라
비교할
##시절의
2001년
성룡은
애들용
애들한테
좋겠음
##거같고
보았어요
전부인
각본을
높은거
어른을
어른도
ㅋㅋㅋㅋㅋㅋㅋㅋㅋㅋㅋㅋㅋㅋㅋ
소설로
어울려
어울림
##지루한
나이먹고
어쩌라는
##액션은
극장판이
화면에
tv로
댓글에
관람가
안보길
진실된
내인생에
내인생의
설명은
유머러스
부모가
120
예고편을
##별로다
짱짱짱
거기다가
제작진은
이하의
기본적으로
슬픔과
해주네요
분노를
모자이크
시원시원
10년만에
소름끼치게
자막으로
소름돋았다
채널을
등장인물들
아련하고
이때부터
정서가
올해의
시사회에서
시시하고
아픔과
##따구로
학생들
필름이
여행을
좋았을걸
슬펐어요
강력한
##♡♡♡
여러가지로
알수있다
인디언
##♥♥♥♥♥♥♥♥
배역이
잘어울리는
##역사상
시끄럽고
감안해도
바이올린
하품만
프리퀄
##어디서
로드리게
일으킨
어거지로
역량이
##비슷한
##귀여워
##아무리
못본게
마녀사냥
##★★★★
오리지날
##아름다
빠순이
반지의제왕
벗어나지
##oooooooo
김윤석
영화볼줄
토할뻔
지진희
레즈비언
의학드라마
못만드나
은은한
##아닐까
서세원
어렷을때
시덥잖은
여진구
##로버츠
김창완
누구에게나
인피니트
성냥팔이
가나다라마바
드릅게
막무가내
리차드
6년
95
It
Th
bgm
c급
for
we
가요
감안하고
갑이다
강수
갖추
같으니
같았음
거참
것보다
고사
공동
과언이
곽부
교양
교감
구린
그놈의
글래
기름
기묘한
김청
깨우
꼴보기
꾸며
끝없는
나래
나네
나지만
나았을
나한테는
남우
남동생
넣고
놀아
높여
놓치지
다있어
다있냐
답없다
당할
대로
더해
덮어
돈날
뒤집
들어요
들었던
똥망
뜨고
러닝
루이
만듦
만으로
말처럼
망하는
맞나요
맞지않는
모리
못찾
못하면
무당
무고한
미남
밍밍
박재
박물
반미
배고
별5
보지않
본인은
부처
비운의
소속
스웨
아낌
안할
알앗
애인
엠비
열어
올인
올리기
옮겨
용감
울려
울림
울린다
울트라
웅장한
워싱턴
웨슬리
위기
유기
유준
유재
유진
윤진
의지가
이랑
이대로
일점
일도
입이
자가
자폐
자리를
잘짜
잘하시고
잼이
잼남
잼게
저버리지
정선
정점을
정준호
제길
조한
조악
존트라
종말
주인
주요
죽지
죽임
줬어
직원
짐작
집합
짓을
짓거리
쫓아
찍으면
찍어서
차갑
책읽
촌스럽다
케미
킬빌
타는
터지
토마스
팬들
풍기는
하더라
한층
한니발
할수있는
허우
형성
화이트
확신
회복
훌쩍
##인이다
##인건지
##운다
##이루
##이너무
##나나
##만남
##화에
##하구요
##하도록
##하셔서
##점수를
##리냐
##리니
##다녀
##할머니
##전부
##들처럼
##국을
##미드
##조선
##해줬다
##울었다
##거가
##불패
##의도
##보인
##보여서
##터클
##민족
##어지
##오피스
##모어
##모로우
##드릴
##겠니
##님과
##분열
##분투
##치에
##즈업
##카의
##카드
##그나마
##출신
##주냐
##였다는
##투표
##0점
##던게
##관념
##세를
##세한
##세끼
##돼서
##랄라
##안다
##안나옴
##되야
##되니
##되었던
##란의
##단의
##됐음
##체류
##결과
##올려
##44
##진리
##일텐데
##피디
##바퀴
##좋았던
##된게
##량이
##유쾌
##잔잔
##슬프고
##10분
##잼있게
##왜케
##히지
##져라
##예뻐
##회사
##눈에
##칠이
##씁니다
##났네
##딱지
##옛날
##뭉클
##맥스
영화보
영화군요
영화사에
##영화야
##영화인지
너무잘
재미에
##으로부터
재밌더라
최고야
생각없는
생각되는
생각하면서
##보다더
사람에겐
사람으로써
재미없어도
보는건지
기대되네요
액션씬은
있는건
하나씩
지금에
한국영화를
하는짓
나오니까
나오겠지
최악이네요
이렇게나
별로라고
별로였는데
##되는지
여자랑
만든거지
유치하지
결말로
결말의
이상형
남자인
짜증나요
눈물은
인간과
인간들의
##재미로
만들어주는
##지마요
이제훈
##스러움이
수준으로
##재밌었는데
##재밌었음
##재밌었어요
추천하는
아주그냥
코미디와
나온건
제목보고
아쉬웠던
그러는데
부족해
부족함이
정신없는
시작된다
##이네여
##소리만
부분들이
##해야한다
오늘의
봤던영화
지루한건
힘들고
당시에도
역사와
졸작을
##스토리에
진부함
함께한
킬링타임으로
예술로
예술적
주연급
있었네요
돌아와
한국영화에
한국영화중
어느하나
지나면
##한영화다
##감동적이고
잔인하다
2편에
##작품은
순수함이
나올법한
걸작을
로맨스가
전체를
한마디만
다음주
비교된다
2003
2008년
알았지
귀엽네요
두번이나
좋겠는데
맘에든다
##보고싶어요
어른들을
##평점에
그대로의
이번에도
다르지만
개그는
예상대로
좀비가
질질끄는
2011년
머리속에
이런영화도
중요하다
성우들
있었다는
편집을
그림도
줄거리만
흥미진진하다
죽음에
결혼을
해야할
기대하고봤는데
가볍지
알려진
아오이유
사라지는
신기하고
전작을
현재를
##따위로
나쁘다
전달하는
##영화로는
중반까지는
아프게
못보겠
사건이
이어지
생각한다면
##지못하고
제작진의
종교를
종교적인
나서도
넘어가는
호러물
슈퍼액션
##보여준
섹시하고
깊이있는
놀랍네요
나타난
희생을
연기자들이
몇번을봐도
할말없음
오랫만
몰입감도
##무섭다
타임머
바뀌는
찝찝함
최강희
어처구니없는
##떨어지고
경험이
결과가
##거라곤
카리스마가
이용한
##소설을
봤을때는
이민호
올리비아
욕망을
평점조작
테러리스트
결정적으로
기대이상으로
제외한
끔찍하다
다섯손가락
정체성을
담겨있는
어우러져
부담없이
이렇지
이렇다
중학생때
보게되었는데
불법체류
아기자기한
스토커
그로테스크
시간때우기용
초월한
김선아
방황하는
##시켰다
개망작
##99999999
골때리는
파이널
들여다
##3456
나뿐인가
저렴한
조인성
트라우
##미니즘
유역비
연쇄살인
배슬기
그이하도
##사부일체
1박2
교도소
김주혁
박한별
강우석
휴잭맨
류덕환
김옥빈
14년
2점은
3점이
3점대
4점은
4000원
ㅡㅜ
가질
가문의
갈망
갈리는
감격
갖는
같애
개허접
개고생
거장의
걸고
걸려
겁나게
괴기
그날
그릇
그영화
그토록
긴박한
길거리
김준
김승우
꺼버린
꼭한번
끄고
나게
나약
나라면
나옵니다
나탈리
남아요
남주의
내사랑
내일이
내평생
너를
넘나
네이
년이
놀랬
느려
달라서
닭살
닮아
답을
답습
대서
대장
대니
대화가
덤으로
데이트
돈에
동경
됐어요
되네
되었어요
되었으면
될지
들었어요
등을
디게
딴거
떠들
리처
마디로
마모루
말론
말하기
말기를
망했다
맞먹는
면을
몇명
모범
목사
목을
목표
못잡
무용
무명
무능력
묵직
문소리
뭔지도
뭘본
미셸
밑바닥
바르
바치는
백번
별론데
보려면
본인의
볼일
봤건만
비약
뻔해
사운
삶이란
삼천
삽질
상승
상어가
생길
서지
서바이벌
선한
세기
세뇌
속으로
수위
시퀀
식당
신발
실베
싱거운
아포
아내가
안함
알지만
알면서
암시
애쓰
애쓴
야한영화
어렴
얼음
없죠
엇갈
여인
오광
온통
왤캐
요근래
운지
울부
울다가
원한다면
이서
이화
이브
이분
이안
이네요
이나라
이라도
이보단
잃게
입체
자이
자녀
자다가
자격이
작년에
잘하시
잡다
잡탕
장수
장군
잼써
전용
절묘한
절실히
좀만
좁은
종이
주려
주민
준수
지역
지쳐
지긋
지르고
직쏘
짓게
쭈욱
찐한
착하고
처리
초대박
축하
춤추
치중
치킨
케로로
크레이
클릭
키드먼
킹콩
타입
퇴마
틀에
팬이라
팬으로서
편향
포커
폭탄
하면서도
함축
허니잼
헌신
형이
후배
휼륭
##인디
##우며
##는지는
##으루
##토의
##이용
##본방
##나은
##아프고
##가물
##가에서
##가야지
##사장
##데가
##지리
##지좀
##지모르
##지지않는
##남자가
##것과
##다만
##장과
##전투
##년을
##한명
##테고
##천히
##로움
##로페
##미지
##소라
##소문
##시코
##려한
##구멍
##조치
##조절
##해줌
##해버린
##도있고
##질뻔
##제라
##디의
##비밀
##자한
##자신이
##포기
##태가
##열에
##ol
##었으나
##어에
##꼭봐야
##될지
##모자
##드류
##동의
##동물
##연씨
##치며
##했어야
##그때
##그지
##그대
##네ㅋㅋ
##형사
##투성이
##더가
##더라는
##부들
##부에서
##관은
##세연
##되다니
##애의
##란드
##통이
##통쾌
##공간
##공을
##단계
##력의
##버젼
##올림
##람쥐
##진한
##경험
##발로
##노소
##노동
##좋았는데
##입장에서
##당함
##200
##1이
##1을
##잼씀
##잼있어요
##프스키
##파일
##빙빙
##광이
##her
##느낄
##백만
##티티
##줄거리
##툭튀
##벗고
##50
##겟지만
##승리
##목을
##랐는데
##항상
##귀가
##빵빵
##났네요
##몸매
##뮤지컬
##흘러
##칩니다
##앓이
영화라도
영화보기
영화인가요
영화한편
너무한거
재미짐
연기때문에
##하는걸
보고있습니다
##었다니
아니었는데
아니올시다
감독에
사랑이다
쓰레기라는
마지막장면은
##라고는
작품성도
액션영화가
있는거지
한국애니
하는영화
최악인
최악으로
별로였어요
연출까지
우리들
아이엠
괜찮다고
괜찮을듯
그런게
만든듯
##연기짱
보여지는
일본을
같은거
무슨죄
유치하다고
이상이
다른데
몰입할
보기전에
짜증을
ㅡㅡㅋ
가슴속에
##드라마도
20살
##시간동안
만들어버린
전개로
아름다워요
필요도
추천할
재밋던데
##나오는거
모두의
아주아주
연기력으로
가족에
##이지나도
모습에서
보다보니
잼있었어요
떨어져서
느껴야
##00만
자체다
미국영화
정신이상
보고싶어서
출연작
감정과
무서워요
신선했고
친구에게
강추강추
행복하다
행복합니다
안되냐
관객들을
만화같은
자신에게
어색하지
추억은
추억으로
지루한데
다큐는
힘들듯
역사가
문제다
예술이
주연을
후회안
찾아봤는데
보지마삼
##주의의
##OOD
지나가는
여기선
중국판
미친영화
집중을
않았어요
불쌍하고
순수했던
이름은
따라올
비슷하다
비슷해서
1999
##자체는
##자체도
다음날
초딩도
감동이었습니다
있을지
##느낌의
이것밖에
귀엽게
교훈은
맘에들
거의다
영화임에도
방송에
안타깝습니다
범죄를
귀신은
3점도
대작이
무서운영화
있음을
알려지지
가능성을
미화시킨
흘러나오는
전달하려는
##짜증난다
그랬지만
러브레터
인상깊었던
OST는
##해보이는
일어나서
후속작이
상처받은
비극을
몸매가
영환지
어렸을땐
동생이랑
설레고
##무서운
역겨워
##나왔다
##bbb
견자단이
시시하다
##관계를
세월호
대부분이
문화적
##art
##재미없어요
##지금까지
깜짝깜짝
치밀어
치밀하고
로버츠
##본영화중에
풍경이
볼수있어서
담아내
의리로
볼때는
다이빙
기준이
연극을
스티븐시걸
야한장면
끝났으면
정확한
으리으리
하하하하
난잡한
30년전
공간에서
위대하다
루즈한
담담한
담백하게
마지막장면에서
형제의
키아누리브
민주화
말해준다
호흡이
된장녀
고질라
비참한
##ime
고소영
한쿡영화의
그와중에
숨어있는
어딜봐서
냉정하게
허무맹랑한
게리올
빠짐없이
불친절
오마쥬
리암니슨
씨네21
여지껏
오다기리
카타르시스
대리만족
감우성
송중기
존1나
최수종
무심코
성지순례
다코타
꾸역꾸역
전두환
주구장창
장예모
존쿠삭
가나다라마바사
어렴풋
2기
3는
4개
48
80년
93
Best
BGM
GOOD
NO
SBS
TO
You
tr
♥♥♥♥
가려
강도
같았는데
개미
개척
거칠
건가요
걷는
것같다
겉만
경고
고아
고대
곤란
관찰
광주
괴리
구식
권총
그곳
글쓰
금발
길어
김우
김아
김진
김병
깎아내
끝가지
나인
나처럼
낚여
남았
낫네요
내친구
노트
노란
놀랬다
눈시
눈알
다다
다뤄
다뤘
데려다가
되었던
따지면
땜시
또하나의
똥꼬
마돈
마인드
만나면
만났다
많았
말것
말던가
맑은
망침
맷데이
명언
명배우들의
못보는
못했음
무도
물결
물체가
미지
반면
받쳐
배낀
법을
변질
병사
보삼
보낸
보셨으면
본거지
본시리즈
봣어요
분들에게
붕괴
뷰티
빌린
사자
사촌
산뜻
삼박
상을
생기는
서동
선과
송새벽
수천
수상
숭고한
스쳐
스튜
시궁
싫어요
심함
싶더니
싸이
쌈마이
쓸때
쓸모
안나온
앉아서
암유발
애청
애정이
야하다
어장
없군요
없었나
에리카
엠씨
예를
오컬
올림
왕자
왕짜증
왜캐
우정을
울뻔
원본
윤은혜
으휴
음란
이면
이쯤
일대
임성한
입에
자비에
잤음
장사
재조
저랑
전원
전하는
전해지는
정권
정녕
제격
조진
졸린
좋던데
죄없는
죽겠다
죽어가는
지인
지성
직설
진다
짠하다
쪽바리
차가
차이를
창문
최상
취권
케서방
크크
클레이
토나온다
토나올
특정
틀을
티라노
파리의
퍼시
푹빠
피의
피어스
하류
하길
하겠다
할려고
핵심
행위
허비
##살짜리
##우울
##기면서
##기때문
##으실
##라며
##본데
##성만
##아래
##아닙
##아팠
##아프다
##서가
##같습니다
##같다는
##음에도
##하심
##하겠네
##리자
##리암
##리우드
##지구
##지난
##지상
##것네
##것이지
##야마
##들여서
##한이
##국에
##실화
##ive
##ke
##로소
##시로
##시디어
##해보는
##에의
##도좋고
##준비
##거도
##용을
##정과
##볼걸
##래서
##었군
##어느
##어지고
##오를
##오와
##말인지
##여왕
##여친
##여자의
##모독
##타인
##분명
##했으니
##먹기
##카타
##그닥
##그릇
##출한
##주변
##였군
##였죠
##였을까
##더이다
##련다
##튼의
##부른
##부리는
##방울
##관의
##얘기가
##감만
##세에
##세의
##세트
##세번
##편에서
##뭐니
##니는
##호크
##na
##gh
##크에
##안볼
##안습
##되지만
##끼는
##응원
##통해
##통으로
##ep
##레스트
##마부
##공룡
##셨는데
##단이
##반대
##됐으면
##맞게
##걸륜
##력으로
##망신
##쓰래기
##일로
##피언
##황후
##선의
##노래도
##착한
##좋을
##학대
##존스
##두개
##병이
##법을
##베이터
##꼬박
##1끼
##8년도
##행동
##프의
##림의
##회에서
##후무
##렸다는
##평해
##교훈
##졌어
##향을
##짧은
##익스피
##겁나
##따로
##십쇼
##혹한
##핵노잼
##끈다
##끈한
##암튼
##칼립
##겄다
영화사
영화이고
##영화와
정말재미있
재밌는거
재밌긴한데
##하는건데
평점1점
이런일이
생각났다
감동이었다
##하게만
지루하진
배우나
내용없고
아니란
아니였다
아니구나
아니자나
사람에
감독이다
만들자
만들던가
만들려면
사랑스러움
쓰레기라
쓰레기에
쓰레기영화는
보는지
기대하는
##지는영화
하나입니다
지금에서야
한국에선
한국전쟁
나오긴
최악이네
별로에요
모르면
이해안되는
##이나는
재밌게봤던
기억으로
##라는건
장면에선
##연기자
이상우
다른걸
##ㅋㅋㅋㅋㅋㅋㅋㅋㅋㅋㅋㅋ
##ㅋㅋㅋㅋㅋㅋㅋㅋㅋㅋㅋㅋㅋ
##드라마다
매력있다
스릴과
##나는영화
##너무나
이제까지
필요없이
억지가
수준임
##재밌습니다
##나오는데
전혀없는
공감대
공감하고
개봉한지
대사하나하나
표현의
잼있네
조금도
기분좋아
떨어졌다
막장도
아쉬울뿐
중간쯤
봐야될
부족했던
정신없고
1편보단
시작해
##0년대에
보고싶어지는
절대보지마
감정은
그저그렇
무서웠던
모르겠는
수작을
장난으로
장난치는
시청자들
얼마전
영화였던
관객들의
자신들의
##해야하는
오늘날
생각이든다
다큐의
함께하는
킬링타임으로도
만들었니
후회가
있었을
애니메이션의
지루하다는
옛날엔
보지마요
##정말잘
##레이터
중국인
뛰어나고
느낌이었다
감사해요
사람들에겐
누가봐도
로맨스는
다음엔
다음편이
단순하게
비교를
비교해서
초딩용
2009년
알았어
알았어요
이미숙
여배우도
##보기로
##수준이다
그리움
존재하지
세계가
소설도
다르고
자연스레
시청률은
##을수없는
멋있어서
그때가
흥행은
의도로
보여주기
엉망이
##영화중하나
아빠를
불륜은
감상평
전설적인
가능성
없을것
미화한
요소들이
2시간을
전작보다
노출은
만들었다고
노력을
노력하는
다운받았는데
놀라게
##줄알았음
##하겠는데
cg는
그려냈다
고민을
연예인이
적당함
올라갈
북한의
동물의
##무서움
그것뿐
광고를
연결고
느와르의
비현실적이고
한참을
편견이
경험을
겨울에
가슴아프고
똑같네
슬펐던
시즌2는
이럴거면
김민준
챙겨보는
움직이거나
주말의
동성애를
##캐릭터가
새끼들
류승완
배역을
오빠들
##reat
영화자체도
열정과
##얼굴이
다섯개
##때문인지
여자주인공이
언젠가는
바이러스
난잡하고
몇년만에
자랑스럽다
로빈윌
일깨워준
9점대는
몰라요
죄송하지만
천국의
매끄럽
##으리라
선사하는
이승기
top
브라질
뭐하자는건지
그이상도
상태에서
##우리나라
##귀엽다
소소하고
##시네마
유승호
음모론
##ㅇㅇㅇㅇㅇㅇㅇㅇ
러셀크
에바그린
지저분한
드라큐
빠르기
짜맞춘
두말할
온몸에
죽을때까지
매혹적인
한두번
구로사와
코엔형제
매트릭스
##보비치
동방불패
디지털
우마서
##안타까
고현정
OCN에서
21세기에
boring
싱크로율
주진모
후레쉬맨
오광록
울부짖
시궁창
1초
29
40년
5는
50년
80분
IM
가네
가다가
갑툭튀
강아
같았어요
개웃김
거라
거리는
건전
견뎌
결여
계기
고리타
공영
공상과
관점이
구속
구분이
굴러
그루
기생
김용
김원
꿈은
끝맺
나치
낙태
네버
녹음
능청
다짐
다봤는데
대성
더블
도는
도서
돈의
돌리고
됐지
되려
되야지
되었고
됬다
들지만
들으면
딴건
때우
떄문에
레니
막막
만다
만나게
말라고
말로는
말코비
맘대로
맛은
매길
매춘
머리는
멀미
멍하니
몇달
모조
못하네요
몽골
무사
문명
뭐든지
미혼
바비
바꿨
박준
받지
발버
발상은
방식으로
백성
버젼
벅차
벗는
변하는
변화가
보냈
보지는
복싱
복귀
부천
부풀
분류
분들도
브랜든
블러
뻔하지
사업
삼촌
생동
샤워
성기
성시
수지
쉴드
스나
스카
스키
스턴
스승
스텔
시한
시기에
식겁
신나고
실소
써서
쓰리
않으며
알고싶다
앞부분
애도
애써
어따
엘렌
여느
여럿
연민
영어로
옆에서
오현
오호
오묘한
오마이
온가족이
올린
와중에
왜그랬
요한
요세
욕나오네
용기가
용감한
워쇼스키
원더
위협
유연
이장
이불
이뭐
이익
인질
인지도
입양
입에서
잘되
잠자
장점을
잼난
전편이
절때
조장
종류의
죄가
죄악
주신
죽어야
중년의
지은
지친
지킬
지린다
진구
질린다
짱깨
쪼금
찬란
천정
천천히
총기
총싸움
최정
최곤
추운
친근
크로우
토마
토요일
통일
퇴폐
특색
틀린
판에
판치는
패배
평에
폐쇄
표한다
핀처
하던지
한이다
한시도
할텐데
할아버지가
핵꿀잼
했냐
헬기
협박
호모
호주
환영
회를
후련
휴대
힐러리
힛걸
##인거지
##우를
##우와
##이영화를
##본드라마
##성룡
##나쁘
##아르
##아파
##만난
##만보고
##화의
##음ㅋㅋ
##하에
##고있는
##지르고
##남고
##남녀
##다나
##다들
##할뻔
##전도
##전설
##들게
##들에겐
##국가
##수리
##등급
##소드
##적을
##시기를
##조심
##브이
##누님
##도없다
##션스
##용으로도
##제이
##제의
##스맨
##스넌
##머리가
##정돈
##자극
##자리에
##볼땐
##대장
##대소
##대충
##대에서
##태의
##열심히
##터지고
##ock
##ri
##있구나
##있었음
##있을때
##있으니
##었기에
##개막장
##어려
##어게
##오면
##오면서
##모드
##모델
##싶음
##매를
##님도
##연결
##분도
##분히
##치지만
##새키
##와닿
##먹음
##먹지
##그가
##그의
##그저
##그룹
##종을
##투더
##키드
##부여
##방학
##생명
##송이
##감성
##뭐임
##호와
##크레
##안본다
##되었습니다
##훈훈
##심리
##봣던
##워싱턴
##중근
##결국
##버가
##망생
##저의
##왔음
##진부
##씨엔
##발음
##노의
##바엔
##끝이
##량한
##유루
##당께
##색히
##베스
##답지
##잼잼
##프라
##히다
##벌레
##합니당
##뜬금
##렸을
##죽이
##티나
##티의
##줄도
##캐릭
##싱어
##별이
##졌을
##움직
##6점
##팬인데
##VE
##ㅈㅎ
##환경
##났지만
##업고
##깊이
##커녕
##낼수
##ㅂㅂ
##졸잼
##콩콩
##춰진
##댄다
##튀는
##듣기
##듣는
##쩔어
영화ㅋ
영화엔
영화니
영화배우
영화구나
영화여서
영화시작
영화치고는
영화끝나고
##영화지
##영화들
##영화라는
##영화라니
재미라도
연기며
연기너무잘
평점10점
이런식
생각좀
감동있는
보고있으면
지루했지만
드라마나
드라마였습니다
드라마였어요
배우에게
내용만
내용까지
재미있었
사람에게는
만들엇
재미없더라
사랑한
쓰레기드라마
보는걸
좋아도
이거볼
작품이네요
기대했지만
좋았다고
좋았을듯
처음인듯
한국말
이게머
##같은건
##적이어서
이렇게도
여자배우
장면으로
만든거냐
아까웠음
볼만하네
반전이라고
##하기위해
##드라마의
매력적으로
매력적임
인생과
솔직하고
많은듯
이제라도
수준에
재밋엇
여운은
가족들이
가족영화로
개봉하고
##장면에
##리가라
나온지
표현할수
그렇네요
어디갔
막장이다
알바는
알바냐
봐야겠어요
나왔어요
웃기게
왜이제
보고싶지
뻔한내용
세상엔
살아가고
나와요
수작이라고
친구들과
장난아니다
행복했다
사실이다
사실적이고
##고싶어서
##이야말로
어릴땐
##한거같다
진정성
코믹요소
주연들의
찾아보니
오래간만에
##사랑은
##주의가
주제의식
궁금함
미친놈
대체적으로
걸작이
사람들만
CG에
비교적
발연기는
2004
애들영화
좋겠네
##거같네
##할때마다
멜로물
다르지
나이거
낮은듯
예쁘네요
흥행실패
화면만
즐거웠던
못하는게
##하니깐
보여주는데
순간의
원래는
어려움
훈훈해지는
자극적이
선택이
안타까워
망작이다
과거와
영웅이
만점짜리
멍청이
멍청하고
안나지만
##하긴하지만
로맨틱코메디
##만이쁨
##그래요
설명도
동화책
우울증
만들었다는
경찰은
부모의
아프네요
풀어내는
누군가를
어렵지만
그랬어
어린이들이
느낀건
하루에
연애의
상처가
보러갔는데
섹시하다
무지하게
난해하고
고생한
등장인물들의
나타나
불쾌하고
전투씬
설레임
연기자들도
상상력에
떠나지
새벽의
드러난
##꿀잼꿀잼
무시무시
신경을
견자단의
우주전쟁
스스로를
##의미로
전반적인
국내에서
에피소드가
복잡하고
갈등과
묘사한
제이미
우정과
##영화라지만
바꿔서
망쳐놓은
영혼의
늘어지고
커플이
스크린에서
풍경과
깨달음을
이해안됨
영화제작
연기잘하는
##답답하고
단편영화
울컥했다
집착하는
크리스마스에
흥미로웠다
개념이
444
##짱짱맨
기대했었는데
##ith
##ess
바이블
유발하는
호기심에
리얼리티가
관련된
밀려온다
빠른전개
영화이긴
키스신
벗어난
선정적인
개똥철학
유행어
죄송합니다
짜릿한
장난치나
10번도
불과하다
펼쳐지는
스펙터클
##귀엽고
거듭할수록
조지클
보고난후
박시후
2014년에
상큼한
자리에서
처절하게
기승전결
흘렀다
우롱하는
시사하는
쓰나미
우아한
추구하는
##봤을땐
태권도
모호한
별1개
우스꽝
어지간하면
치명적인
눈부신
장쯔이
공산당
철저한
어줍잖은
지니어스
진솔한
멜깁슨
정유미
##아자차
단언컨데
##디에이터
기막힌
디비디
우베볼
방어율
가물가물
리부트
긴급조치
지날수록
솔찍히
유튜브
스웨덴
존트라볼타
리처드
##본방사수
공상과학
2점을
2배속으로
3점은
4는
4류
4명
9점을
REC
VO
as
are
im
ok
wor
what
ㅠㅠㅠㅠㅠㅠㅠㅠㅠ
가나
가지가
간에
갇혀
개노답
게이는
겪은
견줄
경쾌
계신
계몽
고추
고요
고르
공정
과제
과하다
교통
구해
굿입니다
권하고
그리는
그시대
극적
기부
기업
까지는
깨고
꼬박
꽃미남
끊기는
나갔
낚일
난장
남길
남주는
남아서
남았던
내보
내린
높을
눌러
다카
다닐
담주
당할수
당당히
대상
대답
대명
대상이
대만족
더티
되었네요
된거
두마리
드팔
드려요
등의
때매
때묻
떠나고
똘끼
뜯어
뜻을
레벨
루시
마인
마더
마침
마스크
만점이
많을
많았고
맞네
맞출
맞춤
매드
머라
메카
명백한
몇OO
목욕
못만든
무적
물이
바랄
바티
밖엔
반했다
발상이
백프로
베테
변화를
별10
보스
보상
보셨
보이나
보더라도
본건지
봤었지
비웃
비열
비꼬
비노쉬
비로소
빠진다
빠지면
빡침
사수
살아서
설리
속을
손잡고
수능
수있는
순식
스콜세
시장
시망
실천
심야
심해
심정
싶지도
쓰다
아청
아른
암만
애교
약속
양심이
얘들
어거
업그레이드
연걸
연락
였음
옆집
예나
예외
오연
오픈
올바른
옳은
왜만드는
왜자꾸
우에
울린
울궈
웃은
웃었음
웃을수
유투
유감
유덕
유선
유료
은유
음산
이집
이처럼
이들에게
있기
있기를
자화
자칭
잘하는데
재생
잼슴
저를
저두
저럴
적을
절규
제국주의
조은
조로
조마
존잘
존예
졸음
주네요
주겠다
주조연
죽었
죽게
죽어라
중화
지브
지르
쩔어요
쯔쯔
참담
챙피
초대
초한지
추악
측면에서
카우
커트
키이라
터뜨
테론
토토
투쟁
퍼포
페넬
페미니즘
편은
평온
포근
포인트가
폼만
표출
프라
피를
핑계
하려면
하모니
할만한
합격
해주고
해석이
화나
황우
휘둘
흑형
흘렸다
히든
##인양
##인에게
##간데
##기며
##기게
##삼아
##이치
##본능
##성격
##서를
##화된
##화부터
##사서
##사한
##하노
##하랴
##하십니다
##내리는
##고의
##지션
##지에서
##것임
##다섯
##장히
##역활
##할지도
##전체
##없었는데
##테일이
##ia
##수술
##등의
##미야
##잡아
##소수
##구들
##구마
##구성이
##조마
##해가
##질만
##불편
##스탄
##릴려고
##러가
##머프
##정권
##무술
##대본
##양은
##보아
##보기도
##곡이
##루치
##었군요
##어진다
##오바
##오그라
##말자
##말곤
##쉬튼
##드에
##드와
##못했다
##작렬
##작이라고
##품달
##연속
##연예
##치는데
##새가
##문화가
##상에서
##관심
##생긴
##게이
##감정을
##니를
##니와
##찮게
##호흡
##크래
##크게
##크릿
##안한
##안될
##안치고
##안나온다
##되기
##되었는데
##ㄴㄴ
##애는
##란도
##통을
##레비
##마와
##마져
##았을까
##았더니
##단한
##단체
##반의
##놈에
##멋짐
##멋있다
##코는
##코를
##탄이
##경씨
##쓰나
##일단
##좋네
##입니당
##맛을
##앞으로
##담이
##베일
##베스트
##차를
##슬펐
##길동
##1도
##행위
##행하는
##잭슨
##둘이
##잇음
##잇어요
##욕이
##예상
##느라고
##렸고
##평범
##죽은
##셔도
##설수
##풀어
##효과는
##별한
##ㅡㅜ
##온나
##쳐라
##싫은
##왕의
##왕자
##ly
##5점
##7년에
##렇지
##way
##약간
##환을
##찾는
##댄스
##콘서트
##UT
##묘사
##닼ㅋㅋ
##닼ㅋㅋㅋ
##팩트
##쁩니다
##밴드
##잊혀
##앵글
영화여
영화군
영화만드는
영화치곤
너무심
너무재밋
너무지루
너무많이
너무재미있어요
재밌나
재밌던
재밌을거
진짜너무
진짜재미없다
##하는사람
##하는거지
스토리상
##하게도
드라마라
100년
재미있지도
감독한테
재미없었는데
사랑하지
쓰레기야
보는중
ㅋㅋ진짜
다시보니까
좋아해
이거진짜
작품이었다
액션영화는
액션마저
없는가
없는건가
하나님의
처음이자
한국공포
10점주
별로였지만
이해하는
그래야
##이나서
이야기라
아이랑
아이템
만든게
주인공에게
보여줘
보여줘야
일본인이
현실로
남자지만
보기를
보기싫다
OO들
원작이랑
##었던영화
이제부터
아름다워서
필요해
##재밌는영화
##다니엘
실망만
재밋다고
엄청나다
코미디물
긴장의
배우들에게
대박영화
공감할수
이걸왜
대단했다
개봉전
개봉했을
##는거보고
##이지난
대사로
나온영화
표현하고
흥미도
진심이
보다말
어디다
어디가서
스릴러로
느껴지고
막장에
막장영화
##한테도
부족해서
나왔다는
나왔다면
##아니냐
작가야
시작과
시작하고
##감독과
살아온
무엇하나
무엇일까
보게됐는데
신선함이
어이없이
행복하고
영화였고
안되면
언제적
되는게
부분만
슬프지
인상이
이딴것도
힘들었음
##아깝고
들어갈
코믹과
포스터의
후회는
후회합니다
캐스팅만
설정으로
##사랑해
충격이다
보지마시길
어느순간
집중할
2편의
##작품을
따라하기
##것같지만
그만해라
감사하게
##수있을까
발연기의
2002
2005
알았으면
화려함
##겠지요
##등학교
두번봐라
교훈과
맘에안
맘에듬
어른들은
실제로는
좋은데요
ㅋㅋㅋㅋㅋㅋㅋㅋㅋㅋㅋㅋㅋㅋㅋㅋ
##할때는
기다린
이번에는
개그도
봐서는
방송을
그녀들의
그녀에게
낮은게
멋있네요
끝나나
불편하게
불편했다
평범하고
중요하지
중요한지
즐거움을
리얼리즘
영화보다도
만드신
돋보였다
그림체가
홍콩영화의
하게하는
한편으로
진행도
어려워
몰랐네요
시절에
여전사
참신하다
##시리즈의
얘기하는
대한민국에서
죽음은
죽음으로
자꾸만
전설이다
바람이
ost는
가능성이
되어가는
설명할
##친구가
요소도
바라본
동화를
흘러가
서로의
관계에
풀어내
해피앤딩
15년전
누군가는
애들이랑
자유로운
그랬냐
##처음이다
##해주면
미래는
황당하고
예전엔
예전부터
안나오네
5점짜리
맞는듯
싸이코패
스트립
산만함
비극적
힐링되는
##인간의
이연걸이
폭력을
##으로서의
포기하고
정서를
그것만
소장가치
##버렸네요
드러내는
비주얼은
비주얼도
스크림
돈아까워서
##ㅉㅉㅉ
이해할수가
10분만에
##만점에
고통과
##버리면
생생히
13일의
영국식
찝찝하고
남겨진
본영화중에
허세만
7점대는
특이하고
##왜이래
##왜이렇게
스크린에
착한척
신비롭고
이해안가는
보여줬던
남자주인공이
떠올랐다
비밀을
야구를
##생활을
작위적
두번째로
열받아
다이아
부실하고
스페셜
돌아가신
배경음악도
감각적인
언젠간
잠시나마
감안하면
케릭터가
책임감
호기심을
##OOO기
정상적인
무너지는
여친이랑
나무랄
허허허
어리버리
흔들리는
거품이
영화평론가
부자연스러운
송강호의
섬뜩한
파워레인져
모아놓고
##질질끌
##dddd
고양이를
반응이
어수선하고
클로즈업
##여주만이쁨
강요하는
초월하는
노골적인
노골적으로
##긴장감
변호사
어떡해
도입부
순진한
극한의
기념비
평점왜이래
꼬맹이
치열한
어마어마한
##감사합니다
파란만
문근영
삼국지
스탤론
전무후무
간절히
가슴찡한
얄팍한
공각기동대
색다르고
이문식
금성무
오리엔
브리짓
쌍벽을
학예회
아포칼립
##제라블
조진웅
러셀크로우
스나입
시한부
퍼포먼
0개
2등
2배
2D
3가
33
50년대
D급
XX
an
al
kn
sp
ㅇㅋ
가지는
감회가
갔으면
같던데
같잖은
건물
걸리
견딜
경각
경상도
고군
고아라
고릴라
공상
공익
과분
굿닥터
권장
그은
그랫
그마저도
급이
기교
기립
길지만
김일
김고은
깊고
깔려
꼬집
꽥꽥
끊기고
끝이다
나로
나아가
나한텐
남북
낮다니
내나이
냉소
네요
노숙
놀고
놀라는
눈꼽
늘려
다해
다봄
단점이
단점은
단막극
당대
댄서
동아리
되다
되지만
될거
둔갑
뒤에서
드류
때리
뛰는
뜻밖의
라니
레미
링컨
마징
말리
맑고
맘마
매국
매너
매염
매료
맴도는
머여
머피
멋대로
메디
명탐정
몇년전
목이
못믿
못했고
못봤지만
무력
무법
묻힌
물음
믿음이
밉상
바란
박근
박희
반가운
받았던
받았을
발달
발정
발랄한
백설
버디
버리지
버린다
범작
베꼈
변하지
보이게
본좌
볼것도
볼시간에
봅시다
봐선
부딪
부르고
브루
비장
빈틈
빙의
뿌리
산업
살면
살다가
살리는
생겼다
생긴다
섞인
송일
숨을
스님
스카이
시가
시초
시티
신소
실상을
심플
썸머
아유
악을
안아
안드는
안봤음
안봅니다
안그래도
안중근
않나요
않으면서
알고싶
알겠네
액숀
양념
얘기는
없을때
없었어요
에잇
에밀리
여백
연개
연설
연평해
영하
영감
영감을
오시
와이
왜만든
왜일까
요거
욕구
우유
울다
웃지요
워스트
위에서
이니
이럼
이창
이프로
인기를
인시디어
일류
일진
읽을
있군요
자서
자다
작고
잘해요
잡혀
장점이
재림
잼께
잼없는
잼나는
저에겐
전주
전광
절묘하게
젊음
정복
정교
제멋대로
제점수는
조종
조형
졸리다
좋구요
좋겟다
주게
주걸륜
줄수가
중3
즐기고
지향
짜깁
찾다가
찾을수
책임을
첨보네
초보
초심을
초저예산
최루
출품
취해
친척
카페
커다
컸던
코너
코넬
콩가루
쾌락
탈북
태도
터진다
테일러
토비
톰과
톰하디
투모로우
튀어나
파이트
판을
판빙빙
팔아
팝핀
패틴
패륜
팬텀
평타
포레스트
하려
하더라도
한창
한켠
한낱
해본
햄버
했어도
헤이
현주
혈압
회자
훨신
흔들어
흘리게
흡혈
##살려
##살의
##살면서
##우어
##기간
##기어
##기물
##이드라마
##이랄까
##성장
##성상
##은채
##아픔
##서로
##화까지
##같으니
##사투
##하셧
##하더만
##내다
##리뷰
##리에서
##고가
##남긴다
##전화
##전으로
##한걸
##테잎
##ks
##수님
##적도
##현재
##구석이
##조작
##브레이
##질에
##질까
##준거
##러진
##디아
##정부
##자본
##자동
##자룡
##놓으면
##포가
##재림
##웃기다
##위안에
##대대
##대중
##보를
##보로
##보기에
##루미
##민씨
##꾸로
##오스
##말라
##말투
##능한
##모션
##모험
##모호
##녀다
##싶어
##드럽게
##매매
##매력이
##겠으나
##타가
##와도
##했죠
##했다는게
##했으며
##그럴
##종교
##난감
##출동
##주길
##주었다
##형님의
##긴지
##방이
##방영
##게된다
##잘어울
##편까지
##채로
##니콜
##good
##안가
##안남
##되다
##ㄴㅇ
##PD
##번의
##통하는
##ect
##심은
##공연
##셨네
##단을
##됐어요
##중에서도
##왔고
##쓰면
##쓰렉
##선은
##착오
##웠네요
##겹고
##학적
##두는
##두리
##두번
##두룩
##날듯
##순이
##베르
##슬혜
##2도
##1편
##둘다
##프를
##찍어
##알렌
##알았다
##히로
##파티
##예쁜
##ho
##뿐더러
##흥행
##플레이
##넘은
##넘들
##덴티티
##쁘고
##꿈을
##씬의
##씬과
##석천
##OST
##슐리
##힐링
##7점
##넣기
##커의
##폐지
##료가
##패닝
##겻다
##쿼터
##앨런
##톨릭
영화학
영화광
영화들의
영화같음
영화속의
재미나
재밌을듯
재밌었을
진짜재밌어요
최고였던
이런지
이런글
##이다니
##들이고
지루하
배우인데
아니어도
아니였음
아니었나
사람한테
사람들과
사람사는
##면서요
만들지마라
사랑스럽
쓰레기인
쓰레기중에
좋아용
좋아했
좋아할듯
좋은지
좋은게
마지막장면이
기대되요
하나만으로
지금이라도
지금와서
한국에도
나오던
나오던데
##같은게
##적이면서도
10점이지
아깝단
명작영화
명작중에
명작이라는
느낌입니다
느낌이네요
이야기지만
##했다니
기억나
기억상실
아이에게
만든건
만든다는
만든건가
주인공들은
주인공들도
볼만하지만
이상해요
몰입하고
소재인데
남자배우가
짜증났다
가슴뭉클
OO이
눈물나
눈물만
매력의
스릴을
##니까요
음악으로
영상만
##시간낭비
만들어야지
많은지
많은생각을
##보는줄
이제와서
##지않아서
필요함
하고는
실망이네요
재밋엇음
전혀없고
공감하기
공감되지
재미있게봤어요
##만들기
제목이랑
##주인공의
아쉽게
막장스토리
자체에
알바들아
정신상태
정신분열
1편부터
나왔다고
작가와
훌륭하지만
##이상의
살아라
영화로서는
그저그랬
보게됨
느끼며
##더니만
무서웠는데
괜찮은듯
##소리를
영화였지만
관객수
관객들은
답답했다
시나리오의
허접하게
배경에
엔딩에서
다큐영화
힘들때
힘들었던
지루함은
아무리봐도
졸작으로
아름답습니다
유쾌함
진정성이
못한다는
공포영화라고
만들었어
주제의
궁금증
중국산
잔인하지만
후반의
상상이
##하시네
##놓고는
따라가지
않는다면
전체적
CG와
비교해도
있을뿐
여배우들의
잘봤네요
마이크
##수준을
각본도
##erf
존재감
소설은
##할때가
자연과
예상을
어쩌다가
시청률을
여주도
머리카
극장판을
재미없는영화
평범하지
화면과
누구야
안타깝네
생각해보니
살인범
전형적
감성의
감성과
식상함
어쩔수없는
훈훈하게
몰랐네
안타까웠다
아빠는
아빠랑
얘기하고
감상하는
##하긴한데
##여자는
영화인것같다
로맨틱한
목소리를
환상적이다
마무리는
신기함
영원하라
흘러간다
싫어하는데
청춘들의
중반까지
##음악이
##짜증남
못보겠네요
제작비를
그랬음
미래에서
##명작이다
심심하다
남아있다
젊은이들의
속편을
화가나서
##세계를
고민하게
##재밌게봤는데
##시켜서
특별히
블랙코메디
사기극
부끄러워
그지없는
올라가
올라갈때
북한이
동물농
아련하다
##안되네
여기서도
불쾌하다
보시라
전투기
설레게
##버렸어
부터가
통쾌하고
##나이더
일반인이
싶어졌다
##나왔음
##이니깐
##관계가
대표적
명품드라마
코난은
안돼는
##만드냐
아역배우
갈등을
빠져들었다
이정진
##도안되고
조합이
ㄷㄷㄷㄷ
##엄마가
늘어진다
정의는
악마가
김수미
움직임
어지럽고
재미잇게
재미잇어요
봤을때도
##사이에
##사이에서
양심적으로
보자마자
##상황에
아름다움과
여러가지를
##문제를
안볼란다
안습이다
낚시질
짜임새가
위로를
한명도
제외하고
개념없는
정확하게
이소룡의
목숨걸고
재밌다는건지
별반개
##선생님이
중독성
이해할수없는
위대함을
임창정의
사무엘
아파서
아파트
예수님
고뇌와
망가진
##어디가
매끄럽게
불안한
아니었다면
한순간에
아이디어는
장난치냐
메이저
##ㅋㅋㅋㅋㅋㅋㅋㅋㅋㅋㅋㅋㅋㅋㅋㅋㅋㅋㅋㅋㅋㅋㅋㅋㅋㅋㅋㅋㅋㅋㅋㅋㅋㅋㅋㅋㅋㅋㅋㅋㅋㅋㅋㅋㅋㅋㅋㅋㅋㅋㅋㅋㅋㅋㅋㅋㅋㅋㅋㅋㅋㅋㅋㅋ
질리지않는
가족애를
별한개
그럴듯하게
아기자기하고
안보는걸
고양이가
안녕하세요
로멘스
적극추천
감수성
파고드는
박정희
재치있는
부드러운
##지르르
##주제에
일일드라마
상투적인
싸울때
아끼는
토끼를
바랬는데
난생처음
마스터피스
소리지르
간직하고
김현주
로렌스
산드라블록
상식적으로
##ife
단조로운
열린결말
잘보았습니다
##ally
돌이켜
한물간
##녀석들
끝냈어야
##킬링타임
거침없이
웬만해선
맥아담
자빠졌네
##789
소오름
무미건조
눈감고
오정세
엠비씨
아오이유우
1박2일
대서사
자이언
가나다라마바사아자차
퍼시픽
발버둥
오마이갓
천정명
순식간에
유덕화가
##여주만이쁨여주만이쁨
고군분투
1을
1순위
2류
3은
45
5월
But
Ost
TH
mc
sn
ㅁㅈㅎ
ㅇㅅㅇ
가면서
간의
갈팡
감점
같다고
같지도
개는
개쩜
개낚
개병맛
거미
것이라고
결승전
공리
공군
곽경
관념
구현
구구
구도
구질
굿이다
권투
귀를
그뿐
그다음
김새
꼽으라면
끝없이
나는데
나약한
날리고
남궁
낳고
내생각
넘사
놈은
높길래
놓을
누워서
느릿
님들아
달인
달린
답지
답없는
당위
대조
대하는
더글
더준다
도달
도배
돈많은
돈받고
돌프
되기
되고싶
될것이다
됬는데
두루
두배우
두배우의
뒤쳐
드러운
들인
들리는
들었지만
디테일이
딱이다
딸은
때리는
뜨거워
레인
레고
루카
루이스
만에
맞는지
맞아요
맥주
머물
머금
모름
목사님
몬가
몸개그
못넘
못하면서
못만든다
무인도
묻고
뭐다
미나
미쿡
민호
바쁜
바닷
반을
반쪽
반대로
발킬
발가락
백퍼
번째
베댓
별생각없이
보신분들
본사람들은
볼라
볼건
부들
브룩
블레
비트
비상
비키
비겁
빛나
뻔할
뻔했다
산악
살림
살인의
상대로
색감과
생의
생물
생명의
샤이
샤크
서커스
설계
성에
센세
소시
소모
솔로
숨쉬
슬펏
시답
신나
신사
실수를
실상은
싫고
싫지만
싫으면
싶어도
싶으나
싶었나
쓴거
씁니다
아싸
아슬
안잡
안구
안먹
안올
안해서
안한다
안하면
안들고
않을듯
알콩
암것도
애처
애기가
액티비티
앨런
야한거
양자
양들의
여균
여기는
여기가
역의
역동
예지
예정
오션스
오씨엔
왕의
외의
외치는
우물
우상
울었네
원한
유태
으리가
이는
이의
이말
이진
이색
이뻣
이었다
이세상
인천
일인
일에
일대기
있던데
있구만
있던가
있으신
잊어
자국
자의
작전
잘지
잘맞
잘해야
잡았다
잡아먹
장엄
장식
장례
쟁쟁
저냥
저스틴
적게
전미
전직
절친
정수
정소
정려
정무
정식
정이건
젖어
제타
조각
조윤
조셉
조화를
조으다
존엄
졸귀
좋을텐데
주다
주로
주어진
주려다가
죽었는데
지혜
지키는
진국
진흙
집으로
짜게
짜장면
짝짝짝
찍었
찍었냐
착하게
천하
천년
천박
천박한
천하의
청불
추모
축복
춤도
치즈
칼을
캐치
컬러
케미가
콜라
키우는
턱없이
테마
토렌
통속
투자를
특촬
파도
패닝
팬으로써
팬심으로
페이
편성
폐해
풀리는
프란
하신
하지도
하구만
하자면
한사람의
할로
할뿐
할수가
할정도로
해맑
해줬으면
해품달
했다가
헌터
헤어지는
헤어진
홍진
화신
후까
훔쳐
훗날
흐를
힘도
힘드네
##철이
##인대
##인격
##우는데
##받았다
##라시
##라클
##이던데
##이영화가
##이예요
##성근
##은왜
##나봐
##아비
##아련
##아씨
##영활
##같으면
##음ㅋ
##류층
##가휘
##사능
##사바
##리려고
##고어
##고향
##지니
##지르는
##남친
##다닐
##역은
##할땐
##없나요
##없구만
##들어가
##국제
##실에
##로워
##소개
##시리
##시끄
##짓거리
##해져서
##해줘야
##해줬으면
##에비
##질주
##질팡
##거려
##거늘
##거슬
##거라는
##달고
##달려
##스나
##스텝
##스톱
##러움
##머가
##자살
##자라는
##볼게
##래쉬
##포함
##찬이
##보드
##보기는
##보느라
##보자고
##있다니
##있었고
##었더라면
##오르
##말지
##말아먹
##드려
##매일
##타기
##동원
##분으로
##분짜리
##치로
##카다
##그로
##활동
##극치
##형님이
##긴했는데
##투자
##련지
##상처
##방식이
##르신
##생에
##집을
##채플린
##호구
##av
##ack
##ne
##안감
##되며
##애서
##ud
##up
##식당
##레의
##갈등
##마루
##마마
##았는지
##심과
##셨네요
##봤다는
##린영화
##버트
##절절
##런트
##망상
##왔으면
##산을
##진게
##선으로
##족이
##바르
##바랍니다
##좋지만
##좋겠어요
##끝난
##유키
##싸이코
##꺼이
##랜드의
##슬립
##텐츠
##1년도
##1년에
##80
##답고
##블로
##잇어
##탈리즘
##잼있음
##합이
##파에
##뿐이
##렸을때
##셔널
##티드
##읽어
##킨스
##캐리
##써도
##약을
##혜진
##팬이라
##났을
##붕괴
##업이
##랬는데
##홍철
##팀이
##낮다
##ㅅㅅ
##변태
##변신
##풍경
##랩스틱
##뛰어
영화에도
영화속에
영화감독이
##영화만
##영화인가
너무좋고
재미지
재밌는지
연기자가
이런식의
이런저런
생각하지만
보고픈
보고왔는데
##하게하는
드라마네
내용인데
내용이랑
내용인지도
10000
아니여
아니었지만
아니잖아요
사람입니다
감독들
감독판
감독들이
만들지마
사랑했던
사랑스러워
보는느낌
보는건데
작품이라니
완전감동
기대하면
액션이나
액션영화의
액션신이
##지는않
없는거야
처음인
##없는듯
하는건가
##적이네요
최악인듯
최악이었음
이렇게밖에
1점줄
별로야
이해못하는
아깝더라
명작인
명작인듯
이야기다
여자로
##지도록
##주는것도
공포에
마음이다
보여줘서
##사람이라면
이상이다
이상적인
소재나
반전으로
보기시작
매력있음
애니도
영상에
영상의
##지마셈
##지않아요
실망했어요
##나오게
배우들에
대박이네요
가족이랑
봤다만
대단해요
##주고싶은
##스트립
모습만
##생각도
떨어트
느껴집니다
그러냐
그러면서
그러려니
봐야합니다
부족하지만
정신적
나왔네
웃기지만
시작된
보고싶다면
따뜻한영화
따뜻함이
절대보지마라
##이상하고
뻔한결말
의미로
의미없이
##거리게
##할수없다
살아있네
감정선을
보게됬는데
수작인데
무섭긴
행복했던
만화도
만화의
자신만의
전쟁과
어색해
봤던거
엔딩을
영화관을
역사적인
##한거냐
문제지만
예술성
예술의
코믹으로
코믹하고
주연배우들의
주연배우의
재밌는듯
더빙으로
##라이프
##사랑이
충격적이고
지나지
여기나오는
##감동도
불쌍하게
알고보면
비슷함
감사하고
감사한다
194
로맨스물
전체가
CG로
비디오가게
##시절이
티비서
2002년
2006년
있을것
##보게되는
성룡영화
당신들은
알게됨
##재밋는데
애들만
두번다시
##나온다고
잘못을
보았음
어른은
존재를
존재의
##재미있어
##재미있네요
기다릴
이번주
하다못해
개그가
예상가능한
##하자나
방송에서
##모르겠음
낮은거
##액션의
100번
가치있는
상영하는
재미없는건
##시대가
##아이를
tv판
잘만들어
사이프리
편집은
좋은영화네요
선택을
끝내지
흥미진진함
괜히봤다
결혼한
##여자를
병맛같은
3점짜리
대작을
이러니까
바람을
내인생최고의영화
유명해서
사라졌다
##기대를
나쁘지않
12년
성장하는
재밌어여
조연이
게임이
게임의
이래도
행동은
##짜증나서
못보겠음
자유와
그랬어요
아닐까요
황당무
황당하다
거기까지
취향에
철학을
젊은이
다가온
##새끼들은
종교적
5점도
예쁜데
아저씨는
아저씨의
슈퍼스타
이기적이고
역할은
소름끼치도록
보러갔
흐름도
##인간들
영환줄
등장인물이
일상적인
##ang
##안되서
해피엔딩이라
남녀노소
그립습니다
연기자분들
상상력과
디즈니의
평이한
##지않은영화
이루어진
출연진이
비주얼이
싶어하는
##나와요
능력을
무시한
무시하는
시각이
시걸이
##ade
연결도
밋밋하다
노답이다
타임용
코난이
기독교인
##떨어진다
영화들보다
박진희
결과를
결과물
기술이
유치함의
스크린쿼터
악마의
어린시절의
아닙니까
일품이다
세련되고
##상황을
감흥도
그당시엔
아름다움에
오랜만이네
첫사랑의
감명깊은
전율을
무한도전
제외하고는
헤어지고
재능을
국가대표
시키지
##아쉽지만
김혜선
##버려라
애매모호
영화같아요
자세한
누군가에겐
1인2
장국영의
##한국영화
잊혀지지않는
꼭보셈
외로움을
장진영
여친이
짐캐리의
몽환적
즐길수
##아쉬워요
점수는요
고어물
##대단하다
담백하고
망가지는
##느끼게
말투가
##아빠가
##드림1개
포인트를
단체관람
알파치노의
우디앨런
따름이다
엘리베이터
빠지는게
시켜서
작화도
떨어뜨린다
런닝타임이
##추억이
아메리카
넘쳐나는
만들어주셔서
귀찮아서
주관적인
데미무
색깔이
평론가는
##이뻐요
##쓰레기쓰레기쓰레기쓰레기
1점준것중
똑똑한
##한마디로
배워라
이경영
살아남은
알렉스
알렉산
황홀한
김소연
미키루
찰리채플린
글로리아
돌고래
불친절한
잘나가다가
진작에
아야세
배틀로얄
후유증
빨리감기
무능한
필모그래
당당하게
톰행크스
##하트넷
통틀어
조디포스터
김규리
시네마
아시는분
박용우
아일랜드
윌스미스
배두나
손오공
장백지
해운대
곽지민
박스오피스
빌어먹을
스캔들
저능아
피노키오
##티네이션
문채원
별5개
윤진서
잘짜여진
어렴풋이
김우빈
오컬트
모조리
교통사고
대명사
아청법
조마조마
황우슬혜
기립박
레미제라블
커다란
갈팡질팡
곽경택
알콩달
할로윈
000
1명
36
4대
49
5가
BE
Re
St
SN
gg
li
time
ww
ㅜㅜㅜㅜ
가수가
가는게
간결
갇힌
감출
갔던
강성
강용석
개개
개소름
개구리
거저
거라고
거꾸로
건조
걸음
것임
것이지
것이라는
것만으로
겪어
경주
계기로
고기
고든
고무
고른
골드
골라서
과소
구리
구성을
그렸다
그정도로
극우
극히
글자
기초
기네스
긴말
길어서
김해
김종
김승
김준호
김효진
꼬꼬마
나더라
나니아
난데
난도
남여
낫습니다
낭패
낮냐
낮추기
내다
내심
내공이
노민
노르
노홍철
녹여
놀라서
놓치
누님
눈살
다본
다수
단독
달래
달린다
답게
당했다
대견
더군
도그
동성
동시
동심으로
됐고
되돌
두배
두사람
둘을
뒤를
뒤섞
듬뿍
디스
떡칠
똘똘
똥이다
똥같은
띄엄
러시
로다
로미
루크
류현
리턴
막내
만이
많아요
말야
망각
매기
맥락
맥그리
맴돈다
머임
먹여
멋졌어요
메마른
멘트
명장면이
몇십
모가
모모
못만드는
묘미
무진
문자
문어
문성근
물려
물에
뭐이딴
미카
바는
바디
바뀔
바라고
바래요
바스코
박성
박혀
반데
받는다
받았습니다
밤새
방식은
배끼
범인을
변해
보리
보질
보듬
보려는
복사
본성
본사람이
본연의
봣던
부셔
분이라면
빠지다
빨라서
빵점은
살게
살리고
살았던
상기
상술
생명을
서툰
서유리
성범죄
세금
세명
소박한
손으로
수녀
수OO
슬랩스틱
습격
시리
시계
시켰
신문
싫다고
심도
심판
심쿵
써먹
썼다
쓰냐
쓰세요
아네
아씨
아랍
아들은
아들도
악한
안개
안나고
안보다가
알지도
암흑
앙상
애뜻
앤드류
야수
약하지만
얼렁
없었을
에라
에미
에게
여겨
여섯
여성을
였는데
예비
오면
올랐
왜봤지
외설
요가
요괴
용가
용기에
웃었어요
웃었습니다
워터
월화
웨스
위주로
윤리
은주
이청
이긴
이따
이곳
이OO
이어가
일지
읽는다
임상
입술
입장이
있단
있기는
있으니까
자질
잘했
잘찍
잘해주
잘했다고
잘만듬
잘나가는
잠도
장학
재즈
재대로
잼나네요
저학년
저번에
적어서
전해주는
절실
정크
제압
조문
조안
졸다
졸았음
죽겠네
중경
중심이
지울
지림
징기스
찌꺼
찍냐
찍었나
찍었는지
찡하게
차에
찬란한
책의
책으로도
챔피언
천장
첨봄
초짜
초중
총각
출시
출근
춤이
취미
친절한
컸다
쿨한
큽니다
타케
타겟
태평
터트
터널
통수
통제
투명
툭툭
튀는
파탄
파티
포토
폭소
표합니다
퓨전
플러스
피에
하울
하락
하겠지만
한류
한판
한잔
한고은
할줄
해바
햇는데
했는가
허망
헤매
현기
현상
현란한
홀리
홀딱
홍석천
화살
후하다
흘리며
희열
히트맨
힘으로
##살짝
##우다
##우려
##는줄
##이번
##이쁜
##이젠
##이것도
##본건
##나갈
##나봐요
##만화를
##영원
##같다고
##같았음
##가까
##사자
##사태
##사노
##하도
##데드
##점이다
##리시
##지냐
##지오
##할텐데
##을만큼
##을거다
##야하는
##테이
##수사
##외에는
##미소
##표가
##시요
##시맨
##면에서는
##조직
##도한
##ㅋㅎ
##불러
##자유
##또봐도
##대원
##대통령
##찬양
##보였다
##보기가
##보지말고
##곡도
##함이란
##짱이
##있다가
##과함께
##어이가
##말하는
##여신
##능력이
##모리
##녀와
##드래곤
##겠단
##겠당
##겠구만
##타의
##작으로
##품이
##분간
##분량
##치와
##치네요
##뻔했네
##카가
##네ㅡㅡ
##네이버
##주네요
##형은
##였어도
##긴하다
##더냐
##더버그
##원으로
##침몰
##키고
##부활
##르트
##르륵
##생김
##게스트
##잘함
##잘하는
##세상에
##돼는
##니오
##ma
##크라이
##안고
##안맞
##봅시다
##되나요
##메세
##식상
##마스터
##심심
##봣네요
##반응
##봤다면
##체능
##중은
##린다고
##코난
##신만
##신경
##산의
##진을
##진희
##일기
##일줄
##일줄은
##씨리즈
##임에
##임ㅋㅋ
##노가
##바도
##좋다고
##최강
##끝남
##끝나서
##유도
##맨날
##꺼는
##꺼같다
##차는
##혔다
##1발
##됬음
##됬으면
##잼있다
##접한
##렸으면
##펜터
##죽겠다
##티시즘
##교가
##줄만
##ㅡㅠ
##빠다
##높지
##졌다는
##써라
##3편
##쁘게
##글고
##왕이
##6년에
##슨과
##잖어
##wo
##SI
##헤이
##짬뽕
##낮아서
##뜨리는
##페이스
##변화
##킬러
##섹시
##괜히
##웟다
##멸망
##맘대로
##쩔고
##밝혀
##콧물
##쫄깃
영화치고
영화에서도
영화일까
영화보는데
영화만의
영화들에
너무해
너무높
너무재밌다
너무좋음
너무좋았다
너무재미있게
재밌진
재밌네여
연기하고
연기진짜
연기실력
##하는것이
최고는
평점이다
생각하나
생각외로
감동이고
보고나
보고있다
지루했는데
##이라며
드라마와
배우님
10살
감독이랑
감독새끼
사랑스럽게
시간대
좋아하시면
이거보면서
내가슴
작품이라는
액션영화를
##하지못한
좋았구요
처음본
##적이게
1점주고
##적으로는
##이나와서
##이나오는
아이덴티티
장면들은
만든거야
주인공에
보여주세요
무슨내용
볼만했지만
##배우님
##배우들도
이상해서
이상하네요
##하기를
원작에서
##너무좋아요
만들어놓은
전개나
전개의
##스러움을
수준인데
실망할
실망도
실망했음
추천으로
연기력만
캐릭터들은
코미디에
코미디라고
긴장도
배우들연기
대박대박
공감되고
##했던거
계속되는
개봉된
##을때가
대사의
##만들지
##만들어주
재밌다ㅋㅋㅋ
표현력
모습으로
그렇다면
잼있었는데
##생각보다
스릴러라고
떨어질
아쉬웠음
그러네요
미국을
않는게
##만한게
시작을
훌륭하게
절대보지마세요
##이상으로
의미에서
어린애들
어린나이에
감동적이였다
어이없네요
친구는
장난이냐
행복이
언제끝나
되는영화
되는구나
점수다
##해야할듯
##내용에
이딴영화를
힘들지만
아름답지만
예술적인
포스터와
애니메이션으로
찾아보는
캐스팅을
설정만
##사랑이야기
사람이면
집중하고
엉성하게
눈물이난다
나올듯
비슷비슷
실화가
실화바탕
195
프로가
##자체를
한마디가
발연기와
티비판
2007년
알았던
이미지를
있을수
##느낌은
두번보세요
여배우는
독특하다
##인생을
어른들
세계적인
기다림
기다리며
멜로도
어쩌자는
재미있는영화
질질짜
볼수있다
멋지네
멋있었어요
끝나기
중요성을
프랑스영화는
생각해본다
한심하고
##그런데
분위기나
잘만들겠다
보여주려고
댓글들
사이의
사이먼
그림자
카메오
순간을
순간부터
엉망이다
선택은
몰랐음
먹먹하게
대한민국에
##이런영화가
##하긴했지만
후반부가
##여자랑
오글거린다
병맛영화
웃긴영화
소중히
독립영화가
복수의
저질이다
희망한다
바람둥이
전편과
앞으로가
##따위는
다행히
연출력에
중반이후
다운받은
90년대에
##막장드라마
부족한듯
뜬금없고
못보겠네
사건은
8점정도
가끔은
##보이는데
케이블로
황당해서
##지못할
##지못하는
안맞음
미소짓게
젊은시절
감탄이
군대를
하루를
##재밌게봤어요
오락성
오락물
오락영화로
사극이
##해보인다
일어나고
해주지
이건뭐지
시원찮
역할에
보러가
자막을
##최고의드라마
부끄럽게
폭력의
폭력적인
깊이를
##대가리
그렇다쳐도
남녀간의
불쾌했다
##무비의
그립고
상상력은
홍보가
반성하게
보이려고
강렬하게
선생님의
##해준영화
역겨움
받아들여
출연진에
일반적인
##이유를
몰입감은
때문이
상업적
타임슬립
아이돌이
끝난후
볼게없다
문화의
복잡하게
##작가의
갈등이
관심도
7점대라니
가슴아프다
초등학생이
학생들이
로봇이
쓰레기같은영화
미모와
조합은
똑같아
망쳐버린
좋았을것을
비판하는
늘어놓
##유치하고
포르노를
풍경도
주성치가
주성치의
##용으로는
둘이서
대해서도
보통의
올리버
욕망의
##♡♡♡♡
할리웃
인상적이네요
그당시에
이끌어가는
연기잘하고
첫사랑을
##하고자하는
결정체
결정적인
기다려지는
무한반복
스페이스
지났는데
서부영화
이드라마는
보지말것
부부가
안된다고
조카가
아내의
아내와
조니뎁의
애기들
##아쉽네요
때려부
##zzz
부모님께
6점대는
주윤발이
주윤발의
##데이즈
##오오오오
사운드트랙
잊혀지질
폐지해라
부정적인
정상인
##123
기억나는건
극단적으로
##아저씨가
이병헌의
몽환적이고
장동민
절망적인
줄리안
##몰입도
버려라
##가슴이
1980년대
실감나는
판타지가
##없을정도로
소화해
##웃기네
현실적이어서
디카프리오의
that
밑도끝도
데스티네이션
##억지로
오지랖
올드보이
##하지말자
##비에르
니콜라스케
낭만적인
빠순이들
엔딩크레딧이
##주고싶은데
코스모
클로이
가시지
공허한
심리묘사
주고싶은데
감수성이
왕가위의
간단한
예뻤다
경악을
덴젤워싱턴
일어나지
##하리라
무색하게
일관성
일생을
멈추지
##CGV
풀어나가는
과대평가된
구지성
밀라요
되도않는
쌩뚱맞은
끼워맞추기
쥐어짜는
비롯한
속도감
조쉬하트넷
##흥미진진
미사일
철저하게
추잡한
고정관념
순정만화
대여비가
김동완
무덤덤
믿겨지
스파르
어드벤쳐
이요원
비긴어게
##개연성
##카메라
야마카시
못난이
일방적인
메릴스트립
오죽하면
폴리스스토리
원초적
서태지
쇼생크탈출
미성년자
##끝날때까지
정경호
데스노트
샤말란
전체관람가
쥬라기공원
분신사바
비둘기
##지던트
김청기
노트북
이뭐병
##크레더블
꼬박꼬박
베테랑
페넬로페
발킬머
알콩달콩
www
더군다나
무진장
앙상블
조문탁
징기스칸
2를
2분
2월
34
4편은
4차원
8점을
911
CF
NG
ebs
kt
with
가이
가스
가오
가야지
간혹
갈피를
감칠
강정
강소라
같았습니다
같으면서도
개를
개밥
개같이
개답답
갠찬
걸쳐
검술
겹쳐
고준
고갈
고대로
고인이
고평가
공통
공백
과정은
광대
구해서
구할수
국회의
그간
그랜
그들에게
금물
기운
까고
까진
꼬아
나라도
나로선
날개
남는거
내포
내이름
넓은
넘지
넘었는데
노아
노노
노이해
논스톱
놈의
놈놈
놓지
님들이
다스
다있나
달랐
닮아서
답이다
당혹
댄싱
더운
더할
더도
덤덤
덩달아
도쿄
돈들여
돋네
돌연
돌파
돌림
돌려서
동서
동반
동굴
동떨어진
되었을
된듯
될수도
둘은
등급
따질
딱임
떳떳
떼지
똑같음
뜨는
라인
라푼
랄프
레지던트
로즈
로케
리모
마네
마셈
말한
말하는데
말하자면
맛없는
맛있게
망했어
맞냐
맞는데
맞습니다
매즈
맥이
맨오브
맴버
먹방
먹어라
멕시코
명의
목격
몹시
못이
못됨
못느끼
무례
무차별
뮤비
미생
미덕
바를
바래
박기
박장
박력
반은
반점
받게
밥을
배달
백윤
버렸네
벗은
베플
변한
변해가는
별2
별내용
별개로
병입니다
보영
보드
보잘
보입니다
보셔야
보너스
보람이
복고
복원
복습
본래
본성을
본기억이
봐온
봐왔던
봤었음
부적
부유
북괴
불태
불어
불평
브리트
빙빙
빚어낸
빨고
뽀뽀
뿐더러
삐뚤
사사
사채
살고싶다
삼성
생전
생산
샤이니
선명
설치
소송
속에서도
속지마라
수잔
수긍
쉽고
스물
스머프
시급
신중
실현
실질
심하네요
심한거
싸가지
쌍둥이
썸띵
쓰는데
아자
아껴
안보게
안했으면
알던
알포인트
알모도
애들과
애쓰는
애쉬튼
야망
얕은
어머
얻는
없을까요
여학생
역에
역설
연발
열등
열번
열까지
염정아
영리
예언
예체능
오멘
오기로
온데
올리고
외전
외노
요샌
욕밖에
욕먹을
웃지
웃었던
원인
원나잇
위엄
위치
위노
유코
은혜
음미
응징
의무
의료
이데
이고
이무
이방
이산
이벤
이시대
익살
인거
인증
인가요
인류의
인크레더블
입으로
있으면서
자란
자질이
작성
잘알
장모
저걸
저항
저리가라
전후
전하고
전부터
정윤
조음
졸리고
좋앗다
죠스
주름
주니
주몽
주룩
주기가
죽이지
죽이기
줄어
중에서는
증오
지만
지방
지지부
지현우
질을
짠하네요
짱난다
쩔음
쬐금
차예
차분한
참아
참된
천사의
첩혈
초창
촌스러움
총집
출생의
카모
캠코
케스팅
코미
콧물
크림
크네요
타령
타격
탁재
탐정
탐험
탐크루즈
터지고
투박한
투니버스
툭하면
티난다
파라
파이터
팔레
팬입니다
편협
펼치는
폄하
포맷
표방
피는
피튀
하자는
한이
한것
한스
한세
한일
할매
할때마다
해당
해답
해냈
해변
행크
허락
헨리
헬렌
혁신
현우
현대의
홍성
화만
화를
화제
환자
회장
후아
후로
후의
흐른
흐믓
##인즈
##인거야
##인거같아요
##때나
##때려
##때리고
##우나
##우먼
##기기
##받는다
##으으
##으려면
##으시면
##라기엔
##라운드
##이것
##이신
##이병
##이군요
##이였는데
##성인
##나가고
##아를
##아이는
##만화가
##영혼
##영상을
##사이의
##사나이
##하튼
##데서
##리수
##리그
##리플
##고기
##지긋
##지다니
##남의
##다닌
##다행
##다는데
##을수록
##전까지
##cc
##kd
##수만
##수와
##로지
##로트
##로니
##외국
##소중
##시각
##시시
##시하는
##시트콤
##려놓고
##면으로
##면에선
##해본다
##에에
##에대
##도없이
##거짓
##거예요
##용은
##스테
##스민
##디언
##정기
##의로
##볼라
##볼껄
##볼라고
##재를
##무리
##무너
##무원
##무조건
##양을
##보이지
##보았습니다
##곡을
##터를
##터맨
##루만
##루의
##민주
##청춘
##었는
##었단
##어내는
##어릴때
##오네
##말의
##꼭보세요
##될수
##될수록
##여인
##모의
##녀를
##싶어서
##못해서
##겠소
##작인데
##새1끼
##와함께
##먹었다
##먹는다
##그거
##그녀
##그랜
##까는
##까말까
##출현
##극에
##극혐
##물론
##주나
##주년
##주러
##주자
##주신
##형의
##문득
##문화를
##련이
##련은
##상상
##원주고
##부다
##잘해
##세영
##세스
##호호
##aut
##db
##안은
##안해
##되지않
##되었고
##되었지만
##끼리의
##론은
##짜로
##짜피
##짜리가
##훈의
##레나
##았지
##됐네요
##좀해라
##결을
##버리게
##절정
##코스트너
##신부
##저래
##진심으로
##쓰는거
##일수
##일만에
##피해
##발을
##발랄한
##족을
##학을
##유럽
##강이
##초월
##넨버그
##담은
##담을
##28
##답시고
##히면
##쯤에
##ㄹㅇ
##뚱땅
##져있다
##딸이
##ter
##넘는
##엇고
##엇지
##엇습니다
##빠짐
##졌다고
##눈물을
##쳐먹
##쪽이
##쪽에
##겟는데
##승천
##목이
##목소리가
##났으면
##웨이가
##퍼센트
##앗던
##ye
##NG
##렀다
##엿습니다
##쵝오
##숭맹
##검사
##풍의
##컨셉
##굉장히
##멤버
##낍니다
##뭥미
영화든
영화내
영화속에서
##영화인듯
재미지다
재밌었지만
재밌었지
##하는줄
##하는드라마
평점들
평점의
평점들이
평점너무
평점10
이런말
생각난
생각보단
스토리다
감동영화
감동이나
감동있게
보고는
지루했습니다
지루할수도
배우진
배우빨
내용들이
10초
아니구
아니였으면
사람이다
사람이나
만들거면
재미없던
사랑이라고
사랑얘기
쓰레기의
보는영화
다시보는
다시봤다
시간날
좋아좋아
좋아했어요
좋은것
좋은배우
좋은영화가
이거랑
이거슨
이거보느니
마지막화
완전실망
기대한다면
액션신도
하나요
이게영화냐
##적이었던
별로인듯
이해되지
아깝군
아깝지만
명작이고
##있는거
느낌에
이야기하는
##한다니
기억하는데
괜찮았을
여자에게
##주는영화
아무생각
아닌게
유치했다
볼만했어요
현실성을
현실적이다
결말과
결말에서
다른나라
몰입할수
보기싫어
눈물짜
눈물까지
매력없는
원작으로
원작만화
인간관계
인간극장
##인지를
정도를
##지마시길
한번보면
필요하겠
필요없습니다
억지스럽게
실망함
실망이에요
추천할만한
##나오냐
캐릭터로
공감하지
##했던영화
가족이란
##진짜로
개봉하면
개봉했으면
##스트의
##이랑은
##만들어서
표현해야
어디에서
요즘영화
잼있습니다
잼있던데
##생각함
느껴져
재미도있고
오랜만이
아쉬워서
아쉬웠어요
만드는구나
1편보고
웃기네요
웃기지도않고
##아니었다
##아니라고
않는가
않는군요
작가도
보고싶었는데
살아나는
살아가야
##ㅡㅡㅡㅡ
남는것도
보게될
모르겠어
감동적이게
감동적이지도
감동적이였어요
친구도
행복했어요
언제부터
사실과
초반부는
##고싶게
##고싶어요
전쟁영화를
추억도
배경만
배경의
영화관이
완벽하고
시대착오
들어와
들어있는
예술은
예술가의
못한영화
개연성을
찾아보고
찾아보게
돌아갈
##사랑의
여러분들
주제와
어느덧
지나가
궁금하지도
중국은
중국에서
불쌍해요
상상하든
따라잡
따라가는
알고있는
감동도있고
얼굴과
프로포
훨씬더
로맨스로
로맨스와
로맨스영화
초딩영화
노잼노잼노잼
이미연
인물에
없어지고
성룡을
당신에게
알게해줬다
귀엽네
킬링타임용으론
생각보다는
##수준으로
독특하게
그리도
각본은
각본에
높은듯
어른들의
어른들도
세계에
세계의
실제로도
몇번봐도
이영화를보고
##재미있었어요
기다리다
멜로를
다르네요
자연을
자연스럽지
감독님은
어쩌란
##스타뎀
평론가가
평론가의
뭐냐고
##액션을
머리속에서
극장판으로
케이온
확실하다
평범하다
누구보다
성우는
너무너무너무
프랑스의
꿀잼이다
의도한
감성은
감성으로
잘만들었어요
보여주면
선택의
##들만이
##이냐고
망작이
아빠의
아빠와
과거로
안보여
먹먹함
영웅주의
별루고
감상하고
비추입니다
희망은
##하는거냐
없을만큼
앞으로의
마무리도
나만의
나쁘게
다행이지
연출력은
서로에게
전달이
청춘을
리메이크가
허술함
뜬금없다
재밌어용
예고편은
조연들이
관계자
피해를
cgv
애들이나
제작비로
4점짜리
80년대에
귀여운데
정치에
심리적
7점짜리
아는척
안나오네요
해주는거
와닿았다
제작진들
군대가
##시켜주는
3편까지
기본이
##이건뭐
라이온
용서는
##보여주고
보러갈
고전영화
무지한
미치겠네
다큐멘타
개판으로
오버랩
표절작
##and
##안되게
해피엔딩을
이때는
이때가
스케일은
눈빛은
눈빛연기
지구의
포기하지
##오빠가
상상력의
표정과
홍보영화
에이미
퀄리티는
30분은
통쾌하다
나가다가
받아들
출연진들
의문이다
헐리우드식
능력이다
어머니가
존경스럽다
우주에
##하신분들
##을거라
외모지상
공부가
타임킬링
전문가평점
놀랐어요
반복해서
안돼요
민망하다
설마설마
본영화인데
8점대가
아줌마가
방법을
인내심이
정의가
##영환지
김민희
남편을
악마를
안본게
어지럽
어지럽다
##사이드
##비디오로
남자주인공의
하늘에서
전설의고향
바꾸면
40자
##상황이
짝이없는
작위적이고
사진을
감명깊고
잘어울림
##소녀의
짜임새있는
집착이
시즌1은
지났는데도
담배를
시청자들이
5분만에
국가의
부부의
사투리가
특수효과가
특수효과도
만약에
생활을
본거지만
따분하고
찾아볼수
영화같네요
누군가에게
인터넷에서
배신감
손색없는
남기는데
따위는
리얼리티를
박중훈의
후속작은
빵터졌다
극복하는
호구로
만화책을
기존에
나레이션이
무게를
##어이없네
극단적
집어치
##굿굿굿굿
벗어날
하시지
과대포장
적당한듯
일으키는
안어울림
명장면이다
##귀여움
최고최고최고최고
부자연스럽고
쯧쯧쯧
##초반에
던져주는
맞추자
엘리자
##볼만함
콜린퍼스
브라운
##00원주고
못만들었다
ㅋㅋㅋㅋㅋㅋㅋㅋㅋㅋㅋㅋㅋㅋㅋㅋㅋㅋㅋㅋ
민주주의
##선택을
드니로의
위트있는
연상케
흉내낸
마리옹
상태로
시간아깝고
##TV에서
발음도
방향을
브로스넌
모독이다
목적을
안겨준
오페라의
드물다
질문을
##이뻐서
##ffff
##더스푼
##신기신기
다큐멘터리가
지루하지않게
##0000000000000000
여기저기서
노튼의
수준이하의
멋잇다
미치는줄
지배하는
차분하게
가해자
모티브로
웃길려고
느슨한
##구구구구
믿어지지
1빠다
김대희
잘표현한
기대할게요
알맹이가
크로넨버그
경이로운
브래드피트
가미된
이세상에
빨리감기로
되새겨
신성일
희한한
믿겨지지
왜냐하면
시끄러워서
어드벤처
작정하고
드라마틱한
##OO노잼OO노잼OO노잼OO노잼
박상민
이명박
끝내주게
셜록홈
애썼다
제주도
140자
어리석은
삼각관계
새드엔딩
전파낭비
##누군지
##자이너
박하선
치닫는
남상미
히스클리
blog
##해피엔딩
장화홍
재활용
제라드
##로게로게
남우주연
조한선
##3456789
지긋지긋
TOP
서동요
애청자
블러드
휴대폰
우에노
##설수설
오리엔탈리즘
아포칼립토
맘마미아
매염방
메디컬
백설공주
신소율
##자동차
THE
넘사벽
여균동
1인2역
##드림1개드림1개
해바라기
니콜라스케이지
돌연변
라푼젤
브리트니
카모메
##숭맹숭
04
2주
2점대
2년전에
3시간이
4회
7월
92
Be
Cg
So
ar
day
was
가기
가리
가도
가려진
각종
간만
감을
강대
같긴
개구
개신
개OO
개무시
거지만
게으
겠다
경비
경향이
고조
고창
고르는
곤충
과감한
관음
광팬이
괴상
괴짜
구스
구타
굿잡
궁굼
귓가에
극악
극도로
근디
급작
기능
기세
김범
김사랑
김정화
깜빡
깬다
껄끄
껐습니다
꼴에
꼽힐
꿈도
꿋꿋
끝에서
끝부분
끼고
나대
날림
낡은
남네
남겼
내서
내공
내마음
너가
너에게
넋을
넘흐
넘치게
논란
놓치고
누드
눈의
늙어서
능욕
능글
늦출
다망
다봤다
다람쥐
달리고
닮았다
답은
당해
당첨
당하기만
대가리
도를
도마
독고
돈좀
동기
돼서
됐음
되겠지
두시간이
두사람의
드럼
들여서
디자
딜레
따르
따져
따윈
떠들어
또라
뚱뚱
뜨거
뜨겁게
띄워
롤러
리딕
마나
마당
마다가
마리아
막을
만행
만하다
말해야
말하는게
망신
망칠
메르
며느
명대
몇편
모던
목적으로
몰아서
몸은
못참
못합니다
못봐서
무참
무쟈
묻히
뭘보고
미적
미끼
믹스
믿는다
바른
박살
박사
발라
발차
발음이
발칙한
밥도
방울
방사능
버렸
버틸
버킷
번지르르
벗겨
별두개
별다섯
보아서
보이네
볼품
볼륨
볼라고
봐봐
봐왔지만
봣네요
봣습니다
부서
부도
분들의
불협
불타는
블럭
비평
비스트
비우고
빙자한
빼라
뻔하게
사유
사색
사죄
사뭇
사는데
삭막
살인이
상위
상남자
상대가
서구
성유
성욕
성숙한
세심한
센과
센스가
셰익스피
소위
소원
소란
소수의
소더버그
속지마세요
손해
수박
쉬는
시크릿
신음
신랑
실로
심취
십대
싱크
싶었지만
썰전
썼으면
아려
아웅
아찔
악령
안한
안대
않더라
알리는
앞세
앵앵
야하지
약함
어땟
어후
어루만
얻고
여잔
오케
오스카
오구리
올리는
와일드
왔음
왜그래
요런
욕은
욕심을
울때
울었는데
웅얼
원시
원스
원탑
월요일
유딩
유효
윤발이
은지원
의사가
의심이
이토
이천
이윤
이득
이들은
이사람
이만하면
이현우
이빠이
인사
인격
일까
일병
일케
일하는
일그러
잃음
임원
재구성
잭블랙
잼없네
적인
전우
전나
전사
전까지
전적으로
절묘
제기
제리
제정신이
졸림
좆망
좋구나
주무
주문
주위에
줄도
중복
줬을
증언
지휘
지혼자
진상
진가를
짓밟
짱이네요
찐따
차이는
찾기가
최성
춤출
충돌
취지는
측은
치매
카드
카지노
카펜터
코폴
코끼리
크레
클루니
태민
탱고
토크
통통
투척
틀리
파는
팬들이
편지
편승
편이지만
폭동
폭망
푹빠져
플레
피아니
필리
하희
하기에
하비에르
학대
한마
한껏
한거야
한명이
할게
할수도
핫세
해양
해부
해줌
행오버
허드
허황
헝거
현저히
형님의
형님이
호빵
홍길동
화보
화나서
횡설수설
후손
후딱
휩쓸
흔치
##철한
##인증
##운전
##운영화
##으라는
##으시길
##이아니라
##본것
##나음
##아가는
##만하네
##만이라도
##화한
##가시
##사일
##하차
##점수가
##내시간
##고래
##고루
##지지만
##장구
##장도
##할배
##할거면
##전엔
##없을때
##없을듯
##들갑
##들리스
##한드라마
##km
##미인
##미에
##미더
##소이다
##소린지
##시위
##시는게
##조기
##조로
##짓은
##에비해
##울때
##울까
##질리
##질로
##질하는
##거탑
##요원
##름을
##스퍼
##디는
##머스
##정이지
##의도가
##자매
##재로
##재의
##위거
##대상
##대왕
##대하고
##태어
##배틀
##보군
##보지만
##보이가
##터져
##루는
##짱임
##청소년
##있나요
##어있는
##오던
##오는데
##오네요
##오른다
##여성
##여동생
##드롬
##드는데
##매한
##동영상
##작전
##치던
##새퀴
##즈음
##트레이
##했군
##했니
##먹먹
##카와
##그루
##그랫
##까고
##주룩
##더는
##게되는
##잘보고
##감이다
##세주
##세윤
##편으로
##뭐가
##호를
##처녀
##BI
##크리스
##안가는
##판에서
##되도
##애랑
##ur
##ue
##레가
##레알
##았으나
##심하고
##공대
##셨는지
##셨나요
##봉이
##놈을
##맞추기
##멋있고
##건이
##체의
##손이
##중입니다
##중하나
##결합
##악당
##완성도
##많으셨
##올리는
##신혜
##왔네요
##40분
##경우
##쓰냐
##일지라도
##희망
##바뀐
##웠어
##겹게
##입니
##학원
##속도
##두가
##유희
##유혹
##겨우
##날라
##색의
##랏다
##법이
##법도
##담에
##꺼에요
##꺼번에
##베가
##권에
##꼬네
##차서
##차반
##월에
##길레
##8년에
##행님
##잇게
##밀라
##잼나게
##프만
##파워
##파악
##햇나
##햇고
##져있는
##츠가
##예전에
##후에도
##9년에
##죄로
##닮은
##몰아
##틀어
##씬에
##특급
##갔네
##쩌는
##70
##빌려
##목숨
##친다는
##팬이지만
##귀여운
##찌질
##넣어
##퍼의
##업을
##틱한
##롭지
##범인
##앗음
##확실
##홍콩
##렌스
##DB
##즐거
##뜨린
##팝스타
##닼ㅋ
##힘을
##AM
##픽션
##웟음
##렷다
##읍다
##츄얼
##ㅌㅊ
영화ㅋㅋㅋ
영화구만
영화만든
영화수준
영화랄까
너무높다
정말좋은
정말재밌어요
정말재미없다
진짜재밌음
연기하는거
최고가
최고네
최고였는데
최고였고
이런명작
생각됨
생각했지만
스토리고
스토리에서
감동있고
##하게되는
##하게만드는
##이라더니
드라마♥
드라마이다
드라마였는데
아니군
아니니까
재미있다는
감독만
만들면서
만들었어요
만들려는
만들수있는
사랑한다면
쓰레기고
쓰레기네요
쓰레기영화가
영화를보고
다시본
시간떼
좋아하긴
이거뭐
마지막부분
작품에서
완전재밌음
##하지못
하나두
하나부터
지금다시
처음인데
처음이에요
처음보네
한국사회
없다니
하는거지
나오미
##적이긴
1점이라도
1점드립니다
10점주고
별로였습니다
이해한
이해력이
명작에
이야기들이
기억안
기억에서
기억되는
아이스
장면마다
그런듯
만든다고
만든걸까
##연기의
공포스럽지
마음까지
일본영화를
일본만화
무슨말을
볼만해
현실도
몰입하기
몰입감을
반전이다
##인가보다
보기좋은
가슴한
OO은
OO도
눈물과
눈물나고
애니스톤
인생도
인생이란
인간으로
##이고요
영상들
극장을
##너무좋아
##시간도
만들어놨
만들어졌다
많은거
모든것
##보는듯
##지마시고
##지않네요
##지않을까
수준미달
실망했습니다
##메이트
대박이고
대박이에요
공감하는
##이지요
재미있게봤는데
잔잔함이
##만들면
표현해서
##했는데도
내용이야
그렇듯
어디가고
기분은
##생각합니다
##생각하면
긴장감있고
긴장감있게
긴장감도없고
아쉽게도
않은듯
아쉬움을
만드는영화
제작을
그러한
알바임
미국인
정신과
정신줄
1편으로
##인듯한
나왔고
나왔지만
나왔어도
시작했다
시작할때
시작하자마자
보고싶습니다
따뜻해지고
##이상함
영화라고는
출연자들
뻔한데
##거리로
살아계
살아간다
감정들
나와야지
여운이남는
보게된다
느끼한
감동적이었고
수작이네요
친구로
주는것도
안되나요
관객과
답답함을
##고싶었다
##고싶을때
##최고입니다
##해야겠다
허접해
슬프지도
완벽에
완벽했던
시대는
힘들었지만
졸작임
유쾌한영화
들어감
들어왔는데
못한듯
코믹이
주연은
공포영화중
애니메이션이다
찾아가
찾아봐도
돌아다니
캐스팅과
기억에남
##사랑하는
옛날꺼
영화라기
안되는게
여기까지
미친다
미친듯
집중력
집중하면서
##감동적이다
불쌍하네
빠져듬
상상의
##ㅠㅠㅠㅠㅠㅠ
대체로
엉성하기
하지원의
나올때마다
비슷하고
영상미로
실화라는게
걸작은
##거지같은
감사할
감사한
##수있게
얼굴로
다음작품
##이야기는
##이야기도
##이었다니
있을지도
있을법한
없어져야
대해선
쓰레기영화다
감동적인영화
##필요없고
평가절
##거같습니다
2점도
보았으면
##한번도
##한번더
세계로
자기네
몇번씩
##재미있었다
기다리
하다하다
어울리고
자연스런
개그콘서트
예상했던
예상외로
볼만한게
##모르겠고
볼수도
##액션물
상영을
그때도
그때당시
판타지로
판타지영화
누구든
누구인지
생각해봐도
잘만들었음
댓글을
댓글보고
사이비
그림과
줄거리와
자극적이지
안타까워요
보는데도
여전한
아빠어디가
만족합니다
##시리즈가
##봐야할
과거가
안보인다
안보신분
안보신분들
##되어있는
멍청하게
영화인건
웃긴건
##코미디영화
비추합니다
소중함
바람핀
천재감독
ost만
가능하다
완성도도
없을정도로
앞으로는
마무리를
##ine
느꼈고
느꼈어요
나라에
유머코드
싫어진다
아이들이랑
연출력의
중반에
노력에
인정하는
성장을
##ㅇㅇㅇ
조연으로
관계의
행동에
##짜증나는
4점준다
대단하다는
그랬나
##처음으로
않을것
##해주지
카메라로
7점이나
속편의
고민이
느낀게
하루가
리뷰가
##시켜준
끝나고도
이하늬
사극을
##해보자
기본은
라이토
라이브
짜증나는영화
흥미롭지도
소녀가
소녀를
소녀들의
##하다는걸
모자랄
깔끔하다
더이상의
소름끼칠
##할까요
부끄럽지
비극이
포장된
흐름과
개판이네
몸매만
올라가는
오버연기
현대인의
동물을
나타나서
심각하다
재난영화의
그것만으로도
올해본
국민이
국민의
국민학교
드러나
이쁜영화
의문을
가까워
성인영화
##나왔는데
##ㅉㅉㅉㅉ
쓰래기영화
##ong
##one
외모와
##무섭고
세월을
로그인해서
##ation
##으로써의
제이콥
7점대가
바꿔야
미모는
박진영
할까요
봤더니만
지겨워서
정의를
##해지네
남편의
챙겨보고
##아주아주
올리자
보여줬으면
##괜찮고
영화제에서
##기다려
떠올라서
바꾸는
베드신이
짝이없다
ㅎㅎㅎㅎㅎㅎㅎㅎ
뛰어넘은
sf영화
결정판
잘어울리고
짜임새도
부실하다
장국영이
다루고
해석을
보지말길
##관람불가
조카랑
가르침
내게는
시끄러운
정우성이
정체성
b급영화
##야할지
두려움을
추격전
##오오오
C급영화
부탁합니다
유럽영화
감동받았다
감동받았습니다
여자친구가
맞춰서
사람들에게는
반담의
박수칠때
고뇌하는
혐오스러운
하시는데
무겁고
일으키
황정음
정보석
이동진
잠들었다
객관적인
길이남을
애틋하고
우디알렌
브라보
인류가
먹칠한
내일은
설경구의
찬양하는
놀래키는
괜찮았으나
포켓몬스터
기적을
방향으로
이태임
김윤진
깨끗한
총체적난
버무려진
따듯해지는
이외에는
믿기지가
꺼져라
윌리엄스
종합선물
이뻤다
정준영
캐리비
애절하고
영화내용은
총격전
2차대전
내세운
##치않은
곱씹어
내리막
정화되는
##뿐만아니라
원작소설을
물고기
휴먼드라마
스타일리쉬한
가관이다
스무살
우습다
썰렁한
표현해낸
훈남이다
거창한
후유증이
불러일으키는
김동욱
뚜렷한
에어컨
##열자열자
선입견을
통틀어서
안목이
재기발랄
과감히
녀석들
자전거
대박나세요
간접적으로
강예원
중고딩
이틀만에
말도안되게
클라이막스
절절하게
##개인적으로
보고또보고
무표정으로
해병대
얼어죽을
홍경인
재미더럽게없다
주저없이
한채영
나래이션
유재석
허우적
넘나드는
어장관리
최곤데
인시디어스
팝핀현준
느릿느
부들부들
센세이션
사이프리드
BEST
얼렁뚱땅
팔레스타
마다가스카
헝거게임
1학년
3가지
5편
5명
7광
85
97
FBI
GT
KT
OUT
Sh
UF
What
great
life
♡♡
가지만
가보고
가필드
감도
감정도
값진
강인
강풀
강츄
강하고
갖은
같았던
개차반
거리를
걸친
걸맞는
겁니까
고교
공원
공평
광기를
괜한
괴상한
군사
군데
군요
권태
그에게
그중에
그들과
그대는
그뒤로
극으로
기간
김흥
김꽃
김인권
꼬띠
꼽는다
끄덕
끈을
끌려서
끝에는
끼리
끼치는
나영
나부
나락
나이는
나로서는
나로써는
날리는
날렸네
남에게
남을듯
남매의
낮고
내적
넘잼
넣지
노조
노린
놀러
농촌
놓치면
뇌를
눈깔
느리다
늙고
니키
니코
니들도
다한
다보
다투
다수의
달랐다
당근
대항
더락
던지고
독이
돌을
돌리다가
동남아
됐습니다
되질
되기를
될만한
들먹
땅에
뗄수가
뜻깊은
라붐
라이트
런던
리스
리듬
리들리스
린치
릴리
마는
막힌
만땅
만끽
많습니다
많으면
많았는데
많았으면
말다
망하고
맞서
맞는다
맥클
맨몸
맹탕
머하나
머하자는
머저리
먹으면서
멈췄
멋졌음
몇분
모음
모차
모텔
몰두
몸으로
못받
못가
못말
못봄
못하냐
못했다는
무민
무거워
문구
묻어나
뭐하고
미만
미로
미켈
미취
미숙
미쉘
미디어
밀고
바꼈
박선
박예진
반한
반려
반동안
밝게
밥그릇
배용
배웠습니다
백점
백수
백투더
버릇
번도
법이
베송
베껴
별은
별그대
병헌
보도
볼께
볼가치가
봤구요
봤다는게
봤는디
부류
부수고
분단
불릴
불량
비위
비보이
빼어난
사납
사와
사후
사탕
사세요
살벌
살펴
삼십
상반
새키
생일
서늘
선악
설교
성준
성과
성취
세얼
세밀
세가지
소용
소망
속았네
손은
손현
솜씨
쇼를
수수
수출
수채
순전히
쉰들러
스위
스럽다
시니
시점으로
식민
신을
신난다
실체
실체를
실소를
심하고
싶다고
싸인
쓰기
쓰라고
씨지
씩씩
아라
아하
아즈
아멜
아홉
아들이랑
아티스트
안됬
안하나
안했지만
안됐다
않던
않기를
않겠습니다
알찬
알콜
알렌
앞선
애드
애착
애니다
애들을
애슐리
야만
어바
어눌
언플
얻었다
얽히고
없으니까
여기도
여성이
역으로
연인과
열혈
엿먹
영애씨
예지원
옜날
오달
오게
오산
오후
오르는
온전히
올릴
왜지
왜그렇게
외쳐
요청
용기와
우째
우덜
우주의
운이
운명의
웃었네요
워낭
원제
원영의
월광
위원
유다
유방
유학
유동근
은밀한
음울
이대
이르
이효
이보영
인것
인민
일장
일뽕
임요
있더라
있길래
잊은
잊게
자유의
자리에
잔상이
잘봄
잘하면
잘한듯
잘했다는
잘하시네요
잘나타
잘봣습니다
잤던
잤어요
잼난다
잼나네
적에
전라
전현
전태
전효
전우치
정규
정적인
제프
조엘
졸리는
졸음이
좋을까
주입
주된
주유
주었던
주려는
중립
중1때
쥐게
지아
지치고
지웠다
질려
짙게
쩔었다
쫄딱
쬐끔
쭉쭉
찌르는
찌라시
찡하다
차를
차용
찬성
찾으러
척하는
철철
쳐박
최다니엘
추가요
충만한
치켜
치더라도
카이
카르
칼싸움
코피
콩은
콩콩
쾌감
쿵후
키운
탐구
탑3
텅빈
테이프
토모
투캅
트럭
티격
티켓
파파
퍼레이드
페이지
포스를
포세이
품고
풍자와
피비
피트
핑크
하라
하트
하염
하구요
한경
한때는
할린
함량
해가
해대
해줘야
했을때
했나요
향기가
헤드
헤헤
형사가
형식의
호랑
혼합
홍어
황인
후벼
후지고
훌룡
흐트
흘려
흘리고
흡인
흥얼
히히
힘과
힘듦
##인터
##인것을
##인거다
##운서
##받음
##받아라
##이민
##이럴
##이구요
##이였음
##이었어
##성우가
##아류
##아녀
##아동
##아키
##아놔
##아슬
##만데
##만대
##음식
##가와
##가지가
##하내요
##하든가
##하우스
##데뷔
##데이트
##내에
##내에서
##내인생
##리야
##리안
##고민
##지전
##지배
##지덕
##남은
##것으로
##것일까
##다다
##장가
##할래
##할라고
##을땐
##을지도
##야를
##없죠
##년간
##년은
##들어도
##한장면
##한느낌
##국은
##국에서
##cm
##수면
##수에
##수씨
##수염
##미모
##미치
##소유
##적이라는
##표절
##구도
##구름
##조폭
##짓는
##해결
##해버리는
##에피
##에플렉
##거만
##거려서
##ㅋㄷ
##뭔가요
##달리
##달달
##불명
##쌍웅
##스스
##릴뻔
##러기
##러의
##디도
##정원
##정훈
##의가
##자만
##자라고
##자나요
##볼루
##래딧
##포르노
##포인트가
##무료
##위주로
##대생
##대는거
##태를
##배운
##보겠다
##보지도
##보는지
##릭이
##함ㅋ
##짱이다
##oy
##있길래
##었나요
##개잼
##개노잼
##어트
##오게
##말씀
##말밖에
##될때
##동아리
##작의
##분장
##치는거
##트롤
##먹어라
##종이
##직원
##군과
##극으로
##주기가
##였던가
##긴다면
##더와
##더러워
##련만
##부끄
##잘한
##감명
##감정이
##세히
##집안
##호사
##ace
##gg
##크닉
##크고
##안보
##안쓰
##안쓰는데
##되지도
##ㄴㅁ
##애요
##애애
##통수를
##ear
##ell
##심의
##심하다
##셨던
##단에
##걸요
##체험
##손을
##중요한
##린다는
##결제
##완성
##코스터
##코리아
##많음
##올로
##산부
##진정한
##슈퍼
##피식
##선동
##바를
##좋습니다
##좋을듯
##좋겠네요
##최초
##끝나는
##두준
##계인
##계는
##계가
##계에서
##당당
##강한
##법칙
##꺼라고
##쇼를
##29
##27
##1보다
##잇는데
##프는
##끌어
##파이팅
##격투
##갑시다
##햇으면
##츠야
##회는
##멍청
##렸네요
##죽이기
##염병
##티는
##티를
##딸을
##넘넘
##눈을
##3명
##3D
##논리
##박사
##갔던
##짐을
##짝이
##겟죠
##멘트
##멘터리
##곳을
##팬이라면
##십점
##SF
##ㅈㅈ
##환의
##업자
##앗습니다
##낮게
##떠는
##떠나서
##찾아서
##ㄱㅋ
##총을
##룩한
##밧는데
##흑흑
##혐오
##몬드
##걱정
##낚시
##캠프
##찝찝
##즉시
영화과
영화안
영화때문에
영화마다
영화이네요
영화와는
너무질질
너무하잖아
재미두
정말재미없
재밌군
재밌지는
진짜다
연기짱
연기연습
##하는듯한
##하는거야
최고급
평점왜
평점보다
평점주는
평점주기도
평점믿고
평점너무낮
생각할수
생각납니다
스토리야
스토리인데
##들이냐
보고왔어요
지루해도
지루지루
지루하던데
드라마인
드라마예요
내용이다
내용전개도
재미있지만
사람이지만
사람냄새
만들다가
만들수있
재미없는거
재미없구만
사랑한다고
##다는것을
보는것도
좋아여
좋은소재
마지막반전
내가이걸
작품들이
작품들을
기대와
기대했으나
액션배우
액션이라도
액션영화로
좋았지
있는척
있는건가
하나에
하나라고
하나라도
##다고해도
지금보기엔
한국인들
하는걸
하는것도
나오더라
나오나요
##적이야
최악이야
10점으로
10점드림
이해하게
우리동네
명작의
느낌이라
평점이너무낮
재밌게봤네요
이영화만
##되는건
장면에서는
공포다
공포스릴러
유치하네
유치해도
유치함이
볼만했고
##배우는
##사람들을
현실에선
현실적이지
이상하네
이상한영화
남자다
남자도
##하기보단
보기힘든
눈물콧물
매력있네요
스릴넘치고
애니에
애니중
인간으로서
##스럽지도
##재미도없고
##지않지만
##지않았나
##스러웠
아름다웠고
필요없네요
억지스럽지
하고픈
실망임
실망시키
실망스런
실망스러웠다
추천드립니다
재밋었음
재밋는영화
##나오면서
여운에
캐릭터랑
배우들연기도
##나라의
공감하며
공감대가
이걸영화라고
계속된다
대단하네
개봉이
나온것
##스트가
##스트레스
잔잔해서
표현하지
##기는게
어디인가
요즘도
요즘같은
스릴러에
스릴러영화
스릴러인데
떨어지게
떨어집니다
알바를
알바의
봐야만
노래하는
정신적으로
1편만
1편이랑
나왔네요
나왔을까
나왔을때
웃기면서
시간이었습니다
시작이
훌륭하네요
훌륭했고
보고싶었던
##감독을
세상과
##할수있다
어린애들이
살아있
살아남는
영화로도
보게되어
무섭네요
무섭다는
##밖에없는
우리나라에도
우리나라에선
행복할
영화였구나
사실이지만
멋진데
답답하기만
##고싶냐
시나리오로
자신에
자신도
##해야한다는
슬프기도
슬프기도하고
1점도아까움
어색하게
추억과
엔딩에
엔딩의
완벽함
시대상을
힘들어서
제발요
진부하게
예술이라
코믹연기
포스터로
후회되는
있었네
있었기에
찾아야
찾아가서
캐스팅으로
설정의
##라이더
몰입도와
##사랑에
##사랑과
옛날영화라
충격이었다
##정말정말
한국영화중에
궁금하지
궁금하네
##만든거
후반은
빠져들고
비슷하지만
감사를
프로파
##기만하다
네이버영화
##듯한느낌
장르도
화려하게
보여주는게
이것두
##보게됨
##시키다니
당신들이
##재밋어
##보기에는
##전개와
##보고싶네요
##보고싶은데
##보고싶은영화
##어가지고
존재는
존재할
존재감이
몇번째
이번이
이번편은
다르네
구성으로
예상이
예상보다
에로티시즘
볼만한건
질질짜는
##들어가는
머리도
멋있습니다
판타지의
평범하게
화면으로
있어서는
중요한데
중요한게
너무너무너무너무
있어보이는
##아이들이
살인사건
리얼하고
한심스럽다
아닐텐데
돋보이고
잘만들었고
보여주려
보여주네요
홍콩식
홍콩영화는
한편으로는
훈훈함
몰랐어요
안타까웠던
끝내라
끝내줌
망작을
여전하다
만족한다
먹먹했다
영웅의
##되어가는
대한민국을
괜히봤어
죽음과
불륜에
감상한
그래픽과
후반부의
귀신도
해야되나
웃긴게
독립영화를
독립영화도
이러고
이러케
바람의
전편보다는
이런거구나
아마존
되어버렸다
연출이며
나만당
유머는
2시간짜리
전작과
다행이
청춘영화
인정하지만
어렸을때는
90년대의
시간낭비다
##다시한번
##보는데도
풀어냈
##짜증나고
왠지모르게
전체적으로는
##하겠음
이어지지
자유롭게
심리와
##해주길래
미래가
카메라를
철학적이고
안나오면
영화보고나서
##ory
감탄했다
알아야지
화가나는
##세계에
##새끼들이
고민하는
하루카
한계인가
리뷰에
사극은
이기야
용서할
용서와
평생을
사기당한
소름돋게
##할까봐
뮤지컬을
흐름에
개판이고
일상생활
깊이도
11점
나타나는
지구가
디즈니가
홍보를
퀄리티를
떠나질
이루지
##마음으로
드러내
이쁜거
180
18금
역겨울
역겨웠다
싶어진다
깨닫고
단연코
청소년들이
스스로의
##의미를
##이후에
에피소드는
로그인했다
##ate
놀랐음
무비의
##ard
안돼고
##만드나
조용하고
##떨어짐
가져야
필름을
먹고살
지겨움
살고있는
커플의
스크린을
안본사람
이소연
대본을
응원하고
빌려봤는데
욕망과
##그렇다
레전드다
도전하는
##요소는
새끼들이
비밀이
수고하셨어요
감흥없는
미스터빈
아까울뿐
아까울정도
열받네
사고방식
죽이는게
##ree
##res
자식들
시즌1부터
다를바
이드라마를
꼬마가
효과음
거짓말을
배경음악이
다운받아봤는데
케빈코스트너
이소룡이
생활이
조절을
조절용
김혜수의
##배경이
내돈내놔
동양인
빵빵터
새로움
기대했다가
읽어보고
누군가의
##버스톤
거북한
난잡하다
부탁드립니다
말았으면
이게뭐냐
타고난
##느껴진다
영화이기도
이도저도아닌
원조격
갖다붙
트랜스
##낮은지
90분동안
과정에서
왠만해서
선사한다
창피한
##제목이
메이킹
없었어도
보는것만으로도
차승원의
타란티노의
우려먹기
숨막히게
쏟아져
괜찬은
연관성
##힘들다
마찬가지로
어땠는지
박시연
입장에선
가시질
우왕좌
그럴싸한
알바생들
기가막힌
국어책읽
수십번
##로맨틱
건강한
번역은
이중인격
미니언
솔까말
화질도
흠잡을데
어설퍼서
보기싫은
보기싫음
망설임
줄리아로버츠
부끄러운줄
비중을
짜맞추기
끊임없는
못주나
##훌륭한
조조로
별1개도
평점낮게
동심의
끼워맞춘
비정상적인
심은하
쥐어짜
이건아니잖아
어지간한
1화부터
그레이스
무기력
트라볼타
다케시
옹호하는
##OOOOOOOO
##스페셜
아키라
##주니어
카타르시
갑작스런
총쏘고
크리쳐
기대해봅니다
김보성
단언컨대
유니크
라디오스타
정은지
개쩌는
윌스미
균형을
썩어빠진
윤제문
눈물샘을
잠안올때
장선우
청소년이
김두한
##마누라
로드리게즈
This
유준상
타임머신
트라우마
삼천포로
실베스타
이화영
키아누리브스
김아중
김병만
눈시울이
맷데이먼
재조명
##아닙니다
드라큐라
공영방송
생동감
##움직이는
조지클루니
난장판
때묻지
유투브
자화상
파란만장한
know
매국노
발정난
이창동
제점수는요
짜깁기
햄버거
흡혈귀
블레어
쟁쟁한
정려원
미키루크
과소평가
중경삼
박장대소
온데간데
첩혈쌍웅
초창기
캠코더
크림슨
무쟈게
하희라
리들리스콧
미취학
2부
2년전
3도
58
56
70분
8점이상
9살
9년
94
99년
9점이상
CSI
IP
LO
LA
My
br
ex
fuck
pd
perf
un
vod
가졌
가관이
가졌던
갈구
감미
감추
감춰진
강함
강원
강해서
갖추고
개유치
거는
거면
거랑
거물
거에요
거예요
거장이
겉도는
게속
겨냥
격정
겸손
계절
고흐
고립
고다르
고개를
곱게
공식을
공공의
관우
구출
구하는
굴욕
그분
그들도
극에
글썽
기울
기관
기뻤
김신
김갑
깊숙
까야
까발
깝깝
껐음
꼼꼼
꾸는
꾸르
꿈의
꿈같은
끈적
끈끈한
끊이지
나문
나원
나선
나뉜
나가서
나은데
날의
날아가
남다른
내옆
너므
넘길
노랑
노인의
논할
눈엔
느림
늙었다
님의
다임
다중인
닥쳐
단한
단단
닮았
대화를
더나
더재밌
더좋은
더스틴
덜떨어진
덤앤더
도요
도중
돈들여서
동해
됐네
될수있
두는
두사부일체
듣던
들었고
들었을
듯이
등극
따지고
딱인
딸내
딸리는
땀이
땅을
때로
땡칠이
떠날
떠드는
떠들고
뛴다
레슬리
레슬링
로리타
리가
리그
린제
마자
마저도
만듭
많다는
많았음
말과
말세
말안
말들이
말라는
말밖에는
맘을
맛도
망하지
망한다
망가지
